<unk>	0
<s>	0
</s>	0
▁b	-0
▁m	-1
di	-2
▁n	-3
an	-4
sh	-5
ku	-6
▁mu	-7
ka	-8
▁ne	-9
shi	-10
en	-11
▁ku	-12
wa	-13
la	-14
▁bu	-15
tu	-16
lu	-17
tshi	-18
le	-19
▁wa	-20
▁ba	-21
mb	-22
▁bi	-23
▁tshi	-24
▁di	-25
▁bua	-26
mu	-27
yi	-28
on	-29
ba	-30
▁a	-31
ye	-32
▁B	-33
▁Y	-34
bu	-35
ena	-36
ya	-37
▁M	-38
ke	-39
▁N	-40
ila	-41
ta	-42
▁ma	-43
ana	-44
bi	-45
ma	-46
ang	-47
▁u	-48
▁waka	-49
sha	-50
▁ka	-51
amb	-52
ha	-53
bo	-54
▁Ye	-55
su	-56
enu	-57
ua	-58
te	-59
ng	-60
▁mi	-61
▁w	-62
so	-63
andi	-64
ko	-65
ho	-66
da	-67
ji	-68
▁Yeho	-69
me	-70
anyi	-71
lo	-72
sa	-73
▁Yehowa	-74
she	-75
eng	-76
▁baka	-77
ntu	-78
anu	-79
▁tshia	-80
▁K	-81
▁ya	-82
nu	-83
na	-84
▁lu	-85
▁mua	-86
be	-87
idi	-88
mi	-89
▁bia	-90
▁nu	-91
onso	-92
▁ha	-93
▁ban	-94
pa	-95
hi	-96
▁A	-97
▁kudi	-98
za	-99
de	-100
▁dia	-101
▁e	-102
▁Bena	-103
ambi	-104
▁udi	-105
se	-106
leng	-107
mbu	-108
bidi	-109
▁bantu	-110
we	-111
▁I	-112
mba	-113
▁bualu	-114
▁me	-115
zambi	-116
▁Mu	-117
▁E	-118
lele	-119
ki	-120
dimu	-121
vua	-122
▁Nzambi	-123
ja	-124
ika	-125
lenge	-126
fu	-127
▁S	-128
loba	-129
▁tu	-130
▁kua	-131
▁y	-132
kua	-133
pi	-134
ebe	-135
▁buloba	-136
ene	-137
kelenge	-138
ze	-139
lume	-140
▁bana	-141
▁D	-142
▁mun	-143
anga	-144
lon	-145
▁H	-146
▁ye	-147
anda	-148
angila	-149
aka	-150
▁k	-151
pe	-152
▁t	-153
ken	-154
tuku	-155
▁Ma	-156
ane	-157
▁yeye	-158
ende	-159
▁muntu	-160
▁bena	-161
▁Isa	-162
▁Ka	-163
he	-164
▁Isalele	-165
bue	-166
kadi	-167
▁T	-168
samb	-169
nga	-170
▁bintu	-171
▁muana	-172
▁Mo	-173
hu	-174
▁nsu	-175
▁Nu	-176
▁wenu	-177
▁anyi	-178
kumi	-179
ngu	-180
▁L	-181
▁muka	-182
nku	-183
▁P	-184
ona	-185
▁mukelenge	-186
▁mutu	-187
vu	-188
▁nsubu	-189
mue	-190
▁kabidi	-191
▁Ba	-192
▁badi	-193
onsu	-194
vidi	-195
anza	-196
▁U	-197
ambila	-198
kulu	-199
wu	-200
▁wandi	-201
kole	-202
weja	-203
▁Maweja	-204
▁Nangila	-205
enze	-206
▁nan	-207
▁balume	-208
pala	-209
▁ng	-210
ele	-211
ngi	-212
soko	-213
▁Ku	-214
▁malu	-215
katshi	-216
teke	-217
▁i	-218
▁andi	-219
▁pa	-220
mbila	-221
▁Ya	-222
ra	-223
▁bakadi	-224
du	-225
▁wakadi	-226
▁nea	-227
samba	-228
▁nansha	-229
ikale	-230
▁bonso	-231
▁we	-232
mbe	-233
nyi	-234
kama	-235
enza	-236
kenji	-237
▁bidi	-238
▁W	-239
ita	-240
kuna	-241
lua	-242
▁Kadi	-243
▁kadi	-244
▁h	-245
mpe	-246
kuabo	-247
tatu	-248
▁mudimu	-249
isha	-250
lambu	-251
yo	-252
shishe	-253
sang	-254
▁nenu	-255
▁adi	-256
jipi	-257
jipitu	-258
▁Ejipitu	-259
ile	-260
▁kanu	-261
▁Yo	-262
▁mpala	-263
kila	-264
▁muan	-265
▁makumi	-266
▁mukashi	-267
kanu	-268
▁munkatshi	-269
▁neba	-270
▁muaba	-271
pu	-272
do	-273
tunga	-274
▁Ha	-275
▁to	-276
san	-277
yu	-278
▁Di	-279
▁abo	-280
▁mesu	-281
▁tô	-282
▁wakamu	-283
kun	-284
man	-285
▁kumu	-286
▁nunku	-287
enga	-288
▁yonso	-289
▁Pa	-290
etu	-291
▁Da	-292
li	-293
▁kun	-294
▁d	-295
▁Le	-296
▁Mose	-297
shila	-298
olo	-299
yele	-300
fe	-301
▁Bu	-302
▁bakashi	-303
▁dî	-304
▁matuku	-305
▁muanda	-306
▁mulume	-307
nda	-308
▁nuenu	-309
▁dituku	-310
▁wewe	-311
▁Yeye	-312
▁Bi	-313
▁Bua	-314
lela	-315
▁han	-316
▁anu	-317
▁lua	-318
▁mei	-319
angana	-320
▁Tshi	-321
▁Davidi	-322
ne	-323
▁ditunga	-324
▁webe	-325
▁onso	-326
one	-327
▁Iz	-328
tshima	-329
obo	-330
jila	-331
▁budi	-332
▁tshianza	-333
▁Izra	-334
▁Izrayele	-335
▁au	-336
▁muo	-337
satu	-338
▁bungi	-339
▁meme	-340
▁mushi	-341
▁yenu	-342
▁mikenji	-343
tekete	-344
▁tatu	-345
▁kaba	-346
▁Bualu	-347
long	-348
shale	-349
▁G	-350
ikala	-351
ela	-352
▁mutekete	-353
▁enu	-354
▁eu	-355
lelu	-356
sanka	-357
kan	-358
kon	-359
▁bandi	-360
mbo	-361
yima	-362
▁ebu	-363
vita	-364
▁musoko	-365
▁dina	-366
▁mai	-367
▁Kanu	-368
▁Moshe	-369
▁luse	-370
▁ndi	-371
lenga	-372
▁wakambila	-373
sungu	-374
▁idi	-375
▁benu	-376
▁kunu	-377
▁mudi	-378
hia	-379
aba	-380
ula	-381
▁awu	-382
▁Mvidi	-383
▁mulambu	-384
▁p	-385
▁Mukulu	-386
tangila	-387
tumi	-388
yama	-389
▁dikumi	-390
▁Nunku	-391
ten	-392
▁tshitu	-393
re	-394
kuidi	-395
▁bianza	-396
ombe	-397
▁na	-398
wi	-399
▁mila	-400
fila	-401
manye	-402
▁umue	-403
▁tshijila	-404
▁mui	-405
ulu	-406
mo	-407
ndi	-408
nene	-409
lama	-410
ong	-411
▁bobo	-412
▁uvua	-413
▁bidimu	-414
▁ngombe	-415
manyi	-416
kela	-417
muna	-418
▁wakamba	-419
▁bionso	-420
uda	-421
▁nyama	-422
▁Ne	-423
kenza	-424
▁Yuda	-425
enyi	-426
▁musu	-427
▁bienu	-428
shiha	-429
teka	-430
▁bwa	-431
shete	-432
▁bukole	-433
kale	-434
tende	-435
▁binu	-436
▁disanka	-437
▁muoyo	-438
mana	-439
mona	-440
▁tshidi	-441
tanu	-442
▁wanyi	-443
▁nvita	-444
▁Yako	-445
▁kayi	-446
lumbu	-447
▁misoko	-448
lulu	-449
▁milambu	-450
to	-451
▁Me	-452
▁mpu	-453
▁nyima	-454
tua	-455
lona	-456
▁mbu	-457
▁Nan	-458
mbi	-459
▁Ban	-460
kane	-461
angata	-462
▁tshisamba	-463
▁lelu	-464
▁Muntu	-465
bala	-466
kula	-467
lang	-468
▁muena	-469
▁kena	-470
kidi	-471
lala	-472
bui	-473
▁Baka	-474
▁mabue	-475
hita	-476
▁yabo	-477
▁Mi	-478
▁didi	-479
▁bisamba	-480
▁tua	-481
▁bubi	-482
▁kahia	-483
▁nshila	-484
▁mukuna	-485
ambile	-486
▁Bantu	-487
▁tshintu	-488
kala	-489
▁mashi	-490
▁Sa	-491
▁Sha	-492
▁abi	-493
fi	-494
tula	-495
▁bui	-496
▁Hashishe	-497
oshe	-498
▁babo	-499
ambe	-500
mane	-501
▁Udi	-502
tenta	-503
▁Haka	-504
▁bonsu	-505
ndu	-506
londa	-507
▁abidi	-508
kisha	-509
fua	-510
▁wakaba	-511
▁Nanku	-512
▁ebe	-513
▁man	-514
koke	-515
jadi	-516
▁kudia	-517
▁muk	-518
▁Lewi	-519
zu	-520
▁nudi	-521
▁tshiamu	-522
shihe	-523
▁ntenta	-524
▁Be	-525
▁kuba	-526
shikama	-527
▁atshi	-528
▁tshidimu	-529
▁buandi	-530
kuabu	-531
▁Bana	-532
▁mitshima	-533
▁nen	-534
banda	-535
nyu	-536
▁aba	-537
▁mene	-538
uaka	-539
▁kum	-540
buela	-541
lula	-542
▁bionsu	-543
▁munda	-544
kuatshi	-545
▁diandi	-546
▁biandi	-547
enzela	-548
▁luseke	-549
song	-550
hianyi	-551
osha	-552
sungula	-553
▁kuenza	-554
▁nkama	-555
▁o	-556
▁Na	-557
▁miko	-558
enda	-559
kasa	-560
kele	-561
▁mutshima	-562
▁Muena	-563
▁tshiandi	-564
kiya	-565
▁yonsu	-566
vi	-567
ewe	-568
dene	-569
▁ebi	-570
▁nyu	-571
▁munu	-572
▁neanu	-573
kese	-574
shala	-575
▁Wewe	-576
dilu	-577
kena	-578
shiya	-579
▁hashishe	-580
▁neu	-581
▁munyi	-582
bua	-583
hung	-584
▁nku	-585
▁kuenu	-586
▁naka	-587
▁waku	-588
▁mitshi	-589
▁lukuna	-590
hika	-591
kalenga	-592
▁wakaya	-593
▁batatu	-594
▁Ndi	-595
▁haka	-596
▁Yelu	-597
je	-598
▁Shaula	-599
fa	-600
lue	-601
muma	-602
mina	-603
dia	-604
fika	-605
▁kuku	-606
sumbu	-607
▁tshiji	-608
▁Nenu	-609
bikila	-610
lelela	-611
▁hanshi	-612
▁abu	-613
▁buabo	-614
▁Tu	-615
enge	-616
hing	-617
▁nka	-618
▁diulu	-619
▁biebe	-620
shalema	-621
▁Yelushalema	-622
▁musue	-623
muka	-624
▁mula	-625
▁or	-626
ban	-627
▁She	-628
▁buhianyi	-629
▁Si	-630
▁nde	-631
▁mabi	-632
angu	-633
rone	-634
▁bakamu	-635
vudi	-636
▁binunu	-637
▁mukuabo	-638
▁edi	-639
sambo	-640
enzele	-641
sangisha	-642
longolo	-643
bena	-644
▁Mukelenge	-645
mpa	-646
shile	-647
oshelu	-648
▁O	-649
▁kuya	-650
angaji	-651
ga	-652
▁muaka	-653
kile	-654
▁ngon	-655
▁bimuna	-656
▁kuosha	-657
tuma	-658
▁ana	-659
▁unu	-660
▁babidi	-661
▁kui	-662
sangu	-663
▁bilulu	-664
mbua	-665
ishe	-666
▁muenu	-667
langanyi	-668
▁Lu	-669
tang	-670
zubu	-671
tamba	-672
▁nzambi	-673
file	-674
▁Alona	-675
▁Abi	-676
▁kulu	-677
▁Nuenu	-678
▁bimpe	-679
kuata	-680
▁Yosh	-681
▁Z	-682
▁kuambila	-683
fue	-684
▁hanua	-685
▁Yakobe	-686
▁tshibi	-687
lola	-688
▁bebe	-689
▁wetu	-690
▁Ke	-691
sama	-692
▁diba	-693
▁tshim	-694
▁tshiende	-695
▁tshituha	-696
▁wakamuambila	-697
hungidi	-698
nua	-699
▁La	-700
▁Yadene	-701
▁bavua	-702
▁bende	-703
tendelela	-704
▁bibi	-705
▁Arone	-706
▁bunene	-707
▁ibidi	-708
lombo	-709
▁kudiye	-710
▁mikuna	-711
▁nyunyu	-712
▁yandi	-713
▁buonso	-714
ent	-715
belu	-716
mena	-717
▁Waka	-718
▁bakulu	-719
▁ndelanganyi	-720
ambedi	-721
▁kabayi	-722
▁kumpala	-723
▁neikale	-724
▁Wa	-725
▁nzubu	-726
ishi	-727
nshi	-728
kenze	-729
jidi	-730
▁aka	-731
lamba	-732
angate	-733
▁Pashishe	-734
▁tshioshelu	-735
▁Pele	-736
▁asatu	-737
▁mushete	-738
rg	-739
▁wak	-740
▁amu	-741
▁bamu	-742
▁muku	-743
ti	-744
▁Meme	-745
▁kutu	-746
▁umu	-747
rgent	-748
▁Aba	-749
manya	-750
sombe	-751
kudimu	-752
▁manyi	-753
▁muakuidi	-754
amba	-755
olomo	-756
▁Solomo	-757
▁bibidi	-758
▁c	-759
▁argent	-760
▁dianyi	-761
vulu	-762
▁Yoshua	-763
▁bidia	-764
▁tshimue	-765
▁kunudi	-766
▁tshiaka	-767
▁mayi	-768
▁biabo	-769
▁mikoko	-770
funda	-771
▁bakaya	-772
▁tshihungidi	-773
hidi	-774
▁diambedi	-775
▁munyinyi	-776
kondo	-777
tshia	-778
kambua	-779
▁wamba	-780
ilu	-781
▁mmu	-782
▁kuandi	-783
▁nua	-784
▁difu	-785
▁mukulu	-786
▁bukelenge	-787
die	-788
▁wakanu	-789
sambombo	-790
▁mushinga	-791
▁ei	-792
▁ke	-793
elela	-794
▁diaka	-795
▁tuetu	-796
▁Yakoba	-797
shu	-798
▁mukenji	-799
▁bankambua	-800
▁mpa	-801
▁ngondo	-802
nyo	-803
anua	-804
panga	-805
▁wabo	-806
hela	-807
▁Yoze	-808
badi	-809
▁mwa	-810
▁kaka	-811
▁Yozefe	-812
▁Badi	-813
▁biaka	-814
ro	-815
▁bakaji	-816
tele	-817
tuka	-818
kokesha	-819
▁wakalua	-820
taka	-821
▁bamanye	-822
zi	-823
▁Peleshete	-824
▁Ab	-825
konka	-826
▁bivua	-827
hata	-828
▁ewu	-829
sambu	-830
▁butu	-831
tshidi	-832
▁mukaji	-833
jimi	-834
▁Shi	-835
▁banu	-836
ngenyi	-837
▁buenu	-838
▁mukanda	-839
ny	-840
sangana	-841
vula	-842
▁mp	-843
sabu	-844
seng	-845
manyisha	-846
▁bakuidi	-847
jima	-848
▁mikiya	-849
▁tshiendelele	-850
▁buihi	-851
tumikila	-852
▁Su	-853
▁baku	-854
▁bule	-855
▁meku	-856
jadika	-857
langana	-858
▁He	-859
dimi	-860
anshi	-861
▁muko	-862
▁atanu	-863
▁bukula	-864
▁biaku	-865
▁miaba	-866
lumbulu	-867
▁etu	-868
hidia	-869
▁Abra	-870
▁dita	-871
▁tshihela	-872
endu	-873
▁nebi	-874
angane	-875
kunvua	-876
▁tshinyi	-877
▁tumuma	-878
▁biakadi	-879
▁buakadi	-880
▁bakuabo	-881
ûdi	-882
ngulu	-883
▁midimu	-884
hama	-885
sefe	-886
▁mamu	-887
▁kundi	-888
owa	-889
▁kuebe	-890
▁muoyi	-891
▁Yosefe	-892
huka	-893
songa	-894
▁Ng	-895
nudi	-896
▁kaku	-897
▁netu	-898
▁mbelu	-899
▁Padi	-900
fete	-901
▁Eli	-902
itabu	-903
tanda	-904
▁nd	-905
▁too	-906
▁madimi	-907
lambuilu	-908
kalu	-909
tana	-910
sambakena	-911
▁mishi	-912
▁bakalua	-913
▁mumanye	-914
nvu	-915
▁Ta	-916
▁bim	-917
▁lufu	-918
lamata	-919
▁etshi	-920
hingana	-921
nde	-922
▁nebu	-923
▁tuaka	-924
nso	-925
▁Se	-926
▁Amo	-927
▁Nen	-928
▁banyi	-929
▁mushindu	-930
▁tshibanda	-931
lame	-932
mushe	-933
▁yaka	-934
▁muvua	-935
▁butuku	-936
fumu	-937
ônso	-938
▁mulu	-939
▁mumu	-940
▁kubu	-941
▁tshisumbu	-942
seke	-943
londe	-944
mbile	-945
udi	-946
kenga	-947
muele	-948
tshina	-949
▁Moaba	-950
▁Abala	-951
▁muele	-952
▁Abalahama	-953
eka	-954
eye	-955
▁Du	-956
▁Ga	-957
▁Esa	-958
hiana	-959
▁bitu	-960
▁akadi	-961
▁bikala	-962
▁mukalenga	-963
▁kusambakena	-964
shika	-965
lombodi	-966
▁Kanungu	-967
▁lungenyi	-968
▁bakelenge	-969
tshu	-970
kishe	-971
▁lukama	-972
▁manene	-973
▁mutshi	-974
▁yakadi	-975
▁wakalela	-976
lota	-977
sung	-978
kunze	-979
▁kabu	-980
▁kudibo	-981
▁biakudia	-982
ou	-983
▁R	-984
▁dilo	-985
▁musulu	-986
pia	-987
pro	-988
▁katu	-989
▁mulau	-990
profete	-991
▁tshitudilu	-992
▁lumu	-993
▁nkay	-994
▁padi	-995
▁dishiya	-996
▁tshilambuilu	-997
▁â	-998
▁he	-999
▁Pal	-1000
▁utu	-1001
▁Nudi	-1002
▁mafu	-1003
langane	-1004
▁makasa	-1005
▁mutuangaji	-1006
enji	-1007
▁mio	-1008
vinyo	-1009
ola	-1010
▁be	-1011
▁meji	-1012
▁isatu	-1013
leke	-1014
▁Kan	-1015
▁Bala	-1016
▁anai	-1017
▁bute	-1018
▁kabi	-1019
▁kanuena	-1020
▁kuluangana	-1021
▁nnu	-1022
somba	-1023
telon	-1024
▁budimi	-1025
telonone	-1026
▁tshikondo	-1027
▁Dutelonone	-1028
sue	-1029
▁ai	-1030
andu	-1031
kana	-1032
▁Aha	-1033
kuate	-1034
▁betu	-1035
▁kabena	-1036
▁nebamu	-1037
▁muakadi	-1038
bilu	-1039
▁batu	-1040
▁waki	-1041
▁disama	-1042
▁kanuyi	-1043
ge	-1044
taku	-1045
▁nanku	-1046
▁mukole	-1047
▁munene	-1048
ole	-1049
ente	-1050
jitu	-1051
sesu	-1052
kenge	-1053
londo	-1054
▁mimpe	-1055
buikila	-1056
sengelela	-1057
▁Bia	-1058
longo	-1059
▁Bobo	-1060
▁Kena	-1061
▁lupe	-1062
jidila	-1063
lekela	-1064
▁tente	-1065
leye	-1066
▁mpi	-1067
▁onsu	-1068
▁Bikala	-1069
▁bikole	-1070
sete	-1071
tema	-1072
sanga	-1073
▁kuabo	-1074
tshinyi	-1075
▁mikuabo	-1076
▁muinshi	-1077
âna	-1078
▁Mana	-1079
tataka	-1080
▁mukana	-1081
fata	-1082
toke	-1083
▁Isaka	-1084
▁batshi	-1085
▁Samuele	-1086
▁bakashikama	-1087
oke	-1088
tule	-1089
shana	-1090
▁Mona	-1091
▁Palô	-1092
▁dinda	-1093
longolola	-1094
nai	-1095
bika	-1096
▁biamu	-1097
lambula	-1098
tangile	-1099
▁Mikenji	-1100
▁wakabambila	-1101
tshiha	-1102
yamina	-1103
▁kabaka	-1104
▁bulelela	-1105
▁Dî	-1106
layi	-1107
nvua	-1108
▁mbi	-1109
hingi	-1110
angala	-1111
▁mumane	-1112
▁Manashe	-1113
▁tshiena	-1114
▁wakafua	-1115
lâ	-1116
sua	-1117
pela	-1118
▁Ben	-1119
▁babu	-1120
▁kuyi	-1121
▁benyi	-1122
▁benza	-1123
musha	-1124
▁nseke	-1125
▁tshikole	-1126
▁hankatshi	-1127
fuma	-1128
lami	-1129
▁neb	-1130
▁buko	-1131
▁buebe	-1132
▁buimpe	-1133
êyi	-1134
mone	-1135
wita	-1136
▁kai	-1137
hatula	-1138
▁tshiba	-1139
▁tshianyi	-1140
▁tshilulu	-1141
bang	-1142
kany	-1143
keba	-1144
▁mba	-1145
tuadi	-1146
luhuka	-1147
▁Ditunga	-1148
▁diakadi	-1149
tendelelu	-1150
▁Benyamina	-1151
hame	-1152
yeye	-1153
▁aku	-1154
▁Naka	-1155
▁diku	-1156
▁nenku	-1157
▁lubilu	-1158
▁musangu	-1159
▁ditalala	-1160
baya	-1161
pwita	-1162
▁mona	-1163
▁tudi	-1164
▁muhika	-1165
▁Abrahame	-1166
oko	-1167
dika	-1168
▁Ama	-1169
▁Efe	-1170
andamuna	-1171
▁tshiakadi	-1172
▁Gi	-1173
▁Amona	-1174
▁mpunda	-1175
kanuambila	-1176
fo	-1177
ée	-1178
lea	-1179
bele	-1180
tshika	-1181
tumikile	-1182
mwe	-1183
▁hehi	-1184
tshila	-1185
tumina	-1186
▁buaka	-1187
▁Dituku	-1188
dée	-1189
▁bo	-1190
ambu	-1191
hona	-1192
▁cou	-1193
▁eyi	-1194
sabuka	-1195
▁ikale	-1196
tshisha	-1197
▁coudée	-1198
▁kufila	-1199
lamatadi	-1200
▁bilamba	-1201
jika	-1202
▁Levi	-1203
▁dibue	-1204
▁mundi	-1205
kudimuna	-1206
ni	-1207
kunu	-1208
pika	-1209
ilada	-1210
kumba	-1211
pesha	-1212
vuluke	-1213
▁muimpe	-1214
ri	-1215
jadike	-1216
▁diebe	-1217
▁nuaka	-1218
▁mianda	-1219
▁tshiebe	-1220
lia	-1221
▁mb	-1222
hele	-1223
▁bikale	-1224
▁mafuta	-1225
▁Amole	-1226
▁neamu	-1227
ananshi	-1228
▁hakadi	-1229
▁l	-1230
âla	-1231
▁Yi	-1232
▁Ze	-1233
naka	-1234
banga	-1235
lesha	-1236
salayi	-1237
▁binua	-1238
anganyi	-1239
▁bisatu	-1240
si	-1241
▁kashi	-1242
manyinu	-1243
▁Kanâna	-1244
▁Kenaane	-1245
▁tshilumbu	-1246
▁manananshi	-1247
pit	-1248
fike	-1249
kobo	-1250
ledi	-1251
waka	-1252
▁new	-1253
pitene	-1254
▁kuena	-1255
▁nkanu	-1256
▁unuha	-1257
sungila	-1258
▁wakatu	-1259
▁misangu	-1260
▁nebikale	-1261
▁wakangata	-1262
ota	-1263
benga	-1264
▁numu	-1265
▁bahika	-1266
longolodi	-1267
▁Lab	-1268
▁Neba	-1269
▁mêyi	-1270
▁bakaba	-1271
▁butumbi	-1272
▁tshimenga	-1273
mon	-1274
okeshi	-1275
dome	-1276
senga	-1277
▁muakane	-1278
mine	-1279
buele	-1280
▁bujitu	-1281
kebe	-1282
kumb	-1283
ping	-1284
▁Dîyi	-1285
▁Shime	-1286
▁mampa	-1287
buikidi	-1288
hingane	-1289
▁nvinyo	-1290
▁bukalenga	-1291
ina	-1292
▁Mua	-1293
▁kan	-1294
vuisha	-1295
▁itanu	-1296
▁mvita	-1297
▁dikasa	-1298
kanyenga	-1299
▁coudées	-1300
▁kukumba	-1301
tela	-1302
▁uba	-1303
longa	-1304
▁kubi	-1305
hatuka	-1306
▁makun	-1307
▁yanyi	-1308
lumbuluishi	-1309
▁No	-1310
ondu	-1311
▁Ahi	-1312
▁ayi	-1313
bandi	-1314
ikadi	-1315
▁Yoaba	-1316
▁nvula	-1317
shikame	-1318
tenteke	-1319
angambila	-1320
londolola	-1321
mene	-1322
pite	-1323
zake	-1324
mbalu	-1325
olola	-1326
▁mena	-1327
▁Efela	-1328
▁Hanua	-1329
▁Izake	-1330
▁anudi	-1331
ven	-1332
tambe	-1333
▁ludi	-1334
mbisha	-1335
▁Sulia	-1336
▁kulua	-1337
▁mbuji	-1338
▁wenza	-1339
▁wonso	-1340
▁bisumbu	-1341
kuatshila	-1342
▁kujadika	-1343
onda	-1344
▁dikulu	-1345
hua	-1346
▁Ala	-1347
▁kûdi	-1348
▁yebe	-1349
▁bundu	-1350
sungule	-1351
▁kuanyi	-1352
▁luendu	-1353
▁lukanu	-1354
luangana	-1355
▁Wakenza	-1356
songalume	-1357
▁tshilamba	-1358
▁diko	-1359
▁kashidi	-1360
▁mukuabu	-1361
▁nuikale	-1362
▁bashikama	-1363
▁nenuikale	-1364
▁wakakokesha	-1365
▁nga	-1366
▁naku	-1367
▁beena	-1368
▁mpata	-1369
kokeshi	-1370
▁mpingu	-1371
▁mukuenu	-1372
▁tshinene	-1373
▁g	-1374
▁Â	-1375
baka	-1376
kema	-1377
yema	-1378
handu	-1379
vensa	-1380
▁nshe	-1381
shibua	-1382
▁lumbu	-1383
kenzela	-1384
▁mitaku	-1385
▁tshifu	-1386
olovensa	-1387
▁kakuena	-1388
▁nshekele	-1389
▁wakatuma	-1390
▁Mulombodi	-1391
ju	-1392
tombo	-1393
tuala	-1394
lengele	-1395
▁bitanu	-1396
▁matshu	-1397
▁Bashana	-1398
▁Efelayima	-1399
▁batshipwita	-1400
▁tshitendelelu	-1401
kwa	-1402
owe	-1403
lone	-1404
▁mabaya	-1405
▁mbushi	-1406
kobolola	-1407
▁tshitema	-1408
tan	-1409
boko	-1410
peta	-1411
hanga	-1412
▁Ashe	-1413
▁baki	-1414
▁ivua	-1415
▁Pikala	-1416
▁banene	-1417
▁wakela	-1418
▁tshipela	-1419
▁nebuikale	-1420
▁tshimpanga	-1421
▁nkusengelela	-1422
men	-1423
▁Asa	-1424
pangu	-1425
▁Gada	-1426
▁neyi	-1427
▁tuba	-1428
▁bamba	-1429
kenzeye	-1430
▁Gilada	-1431
▁difutu	-1432
▁mukoku	-1433
▁tshivua	-1434
▁Bukalenga	-1435
▁polovensa	-1436
▁ta	-1437
kule	-1438
pita	-1439
mbula	-1440
▁Muka	-1441
▁Yona	-1442
ambula	-1443
▁kuela	-1444
▁kushi	-1445
▁mubidi	-1446
▁masalayi	-1447
kâ	-1448
mvua	-1449
▁lue	-1450
lomba	-1451
▁kufua	-1452
▁wakateka	-1453
luka	-1454
▁nem	-1455
kandu	-1456
▁kule	-1457
meleke	-1458
sakidi	-1459
▁Betele	-1460
▁Lubena	-1461
▁buanyi	-1462
▁ndondu	-1463
▁tshinu	-1464
▁kuandamuna	-1465
▁Ge	-1466
▁ki	-1467
loma	-1468
buipi	-1469
wungi	-1470
▁baba	-1471
yemena	-1472
▁muenyi	-1473
▁bimenga	-1474
▁pabuipi	-1475
▁kuangata	-1476
▁mpawungi	-1477
mia	-1478
minu	-1479
▁Tua	-1480
itaba	-1481
kanda	-1482
peshe	-1483
▁Esau	-1484
▁wakan	-1485
kangata	-1486
nguluka	-1487
▁diende	-1488
▁dinene	-1489
▁maluvu	-1490
▁nuenza	-1491
sangishe	-1492
▁kuikala	-1493
▁mitanda	-1494
vudishile	-1495
▁tshitupa	-1496
nvue	-1497
sulu	-1498
fundi	-1499
hiane	-1500
nkanu	-1501
▁kunua	-1502
shaloma	-1503
▁kuteka	-1504
▁mukoko	-1505
▁muanabu	-1506
▁Abashaloma	-1507
▁,	-1508
▁aa	-1509
▁an	-1510
▁kw	-1511
ange	-1512
vudishila	-1513
▁Yonatana	-1514
▁tshibawu	-1515
▁Bete	-1516
▁tulu	-1517
▁esete	-1518
▁makole	-1519
▁netshi	-1520
sankisha	-1521
▁bakenza	-1522
▁wakenza	-1523
▁tatuende	-1524
▁un	-1525
bale	-1526
sumba	-1527
vidie	-1528
▁mihia	-1529
▁kakadi	-1530
▁mvidie	-1531
▁lupemba	-1532
▁mikandu	-1533
▁kubuhiana	-1534
▁kubuikila	-1535
▁muprofete	-1536
kuku	-1537
nayi	-1538
eneka	-1539
▁dimpe	-1540
▁monai	-1541
▁nende	-1542
▁dilolo	-1543
▁nebanu	-1544
▁tubalu	-1545
kengesha	-1546
▁Tangila	-1547
▁bakamba	-1548
▁bikuabo	-1549
▁kubuela	-1550
▁kuinshi	-1551
▁musenga	-1552
sangakena	-1553
▁kutumikila	-1554
▁Hi	-1555
hite	-1556
shihi	-1557
▁nabi	-1558
▁adibo	-1559
▁bietu	-1560
▁muabo	-1561
▁kuamba	-1562
▁mikoku	-1563
▁tukese	-1564
ôde	-1565
▁El	-1566
sheye	-1567
▁mbua	-1568
enzedi	-1569
kumuka	-1570
lekele	-1571
tshine	-1572
▁Edome	-1573
▁pamue	-1574
nkanunu	-1575
kudimune	-1576
▁tshiadi	-1577
▁tshikuabo	-1578
▁wakashiha	-1579
mp	-1580
kuny	-1581
fuile	-1582
kishi	-1583
▁dîyi	-1584
lobama	-1585
▁biende	-1586
▁Yalobama	-1587
▁Amen	-1588
▁avua	-1589
▁mibi	-1590
kalaya	-1591
▁wende	-1592
bambalu	-1593
▁Sihona	-1594
▁bakese	-1595
▁mpungi	-1596
▁bilonde	-1597
▁bilumbu	-1598
▁ushikama	-1599
mbue	-1600
▁Mbu	-1601
▁nta	-1602
hueka	-1603
mfumu	-1604
▁ditu	-1605
▁yabu	-1606
butula	-1607
▁dimue	-1608
ngulula	-1609
▁kulela	-1610
▁tshinunu	-1611
juka	-1612
keme	-1613
▁nte	-1614
mingu	-1615
▁nabu	-1616
▁miosa	-1617
▁bianyi	-1618
▁muandi	-1619
▁pikala	-1620
itabushe	-1621
▁kutangila	-1622
▁kutendelela	-1623
▁atu	-1624
shipe	-1625
tangi	-1626
▁Palo	-1627
▁hatu	-1628
▁kuji	-1629
▁mule	-1630
▁neng	-1631
▁Esawu	-1632
▁ntshi	-1633
▁basatu	-1634
▁bunudi	-1635
▁dikole	-1636
▁kumona	-1637
▁nealue	-1638
▁Tshiena	-1639
▁mushiku	-1640
▁asambombo	-1641
▁wakabikila	-1642
shû	-1643
kose	-1644
muke	-1645
ndie	-1646
seba	-1647
unda	-1648
anana	-1649
banji	-1650
shona	-1651
fuisha	-1652
▁mufue	-1653
▁munya	-1654
▁panshi	-1655
▁makunshi	-1656
▁wakangambila	-1657
fw	-1658
▁En	-1659
kuma	-1660
▁Bâla	-1661
▁Tudi	-1662
▁bobu	-1663
▁nubi	-1664
ndiewu	-1665
zikiya	-1666
▁Bintu	-1667
▁kapia	-1668
▁mioyo	-1669
lombola	-1670
▁luandi	-1671
▁tshita	-1672
itabusha	-1673
muambila	-1674
▁dikenga	-1675
▁Katataka	-1676
eke	-1677
▁bû	-1678
▁ham	-1679
kanyi	-1680
kulua	-1681
▁matu	-1682
jidile	-1683
tumine	-1684
▁Tuetu	-1685
▁nsudi	-1686
▁Elisha	-1687
▁kufika	-1688
▁nganyi	-1689
▁kusomba	-1690
▁utshidi	-1691
▁newikale	-1692
kunuambila	-1693
luke	-1694
tabu	-1695
▁twa	-1696
weena	-1697
▁Sama	-1698
▁njila	-1699
shafata	-1700
▁Buloba	-1701
▁kutshi	-1702
▁mabele	-1703
▁Hezikiya	-1704
▁bulongolodi	-1705
mpi	-1706
▁So	-1707
▁li	-1708
tahu	-1709
yaya	-1710
huola	-1711
longu	-1712
▁Bidi	-1713
▁kung	-1714
ambulu	-1715
▁udibo	-1716
▁wakabi	-1717
▁bikondo	-1718
▁tshienu	-1719
▁Yehoshafata	-1720
▁Pi	-1721
lalâ	-1722
sheb	-1723
funde	-1724
kunde	-1725
▁Tatu	-1726
▁diyi	-1727
▁midi	-1728
▁muba	-1729
▁nshi	-1730
ebesha	-1731
▁Ahaba	-1732
▁basue	-1733
▁divua	-1734
▁makalu	-1735
▁Samalea	-1736
▁misambu	-1737
lumbulula	-1738
▁mishindu	-1739
ve	-1740
▁Ki	-1741
▁biu	-1742
▁ngu	-1743
▁ubi	-1744
suika	-1745
▁diabo	-1746
▁neaba	-1747
▁nemba	-1748
▁bamane	-1749
lengesha	-1750
▁katataka	-1751
▁tshionsu	-1752
▁Abimeleke	-1753
▁bakashiha	-1754
▁bukookeshi	-1755
mw	-1756
bwa	-1757
tre	-1758
pete	-1759
fuila	-1760
▁mesa	-1761
▁nawu	-1762
▁kuaka	-1763
▁mputa	-1764
▁udiye	-1765
▁Nansha	-1766
▁kanudi	-1767
▁mukalu	-1768
▁dikuabo	-1769
▁kushala	-1770
kuatshile	-1771
▁nnuambila	-1772
▁Pe	-1773
kina	-1774
waku	-1775
▁kwa	-1776
kenda	-1777
lombe	-1778
▁Gibe	-1779
▁Midi	-1780
▁Yele	-1781
dimuke	-1782
▁Nenku	-1783
▁dienu	-1784
▁kuasa	-1785
songaka	-1786
▁dijima	-1787
▁masama	-1788
▁muenze	-1789
▁makenga	-1790
▁kumudilu	-1791
▁kukumbaja	-1792
▁Tshibambalu	-1793
▁wakahingana	-1794
laya	-1795
neme	-1796
saka	-1797
▁efo	-1798
▁lwa	-1799
▁mia	-1800
▁Hebe	-1801
▁Malu	-1802
▁balu	-1803
sesuka	-1804
shibue	-1805
tekelu	-1806
▁kunyi	-1807
▁balami	-1808
▁binudi	-1809
▁mpumbu	-1810
▁mulele	-1811
▁talalâ	-1812
▁wikale	-1813
sambombu	-1814
sankishe	-1815
▁Usungula	-1816
▁tshionso	-1817
▁bakambila	-1818
▁wakasungula	-1819
bâ	-1820
angi	-1821
bulu	-1822
fute	-1823
jelo	-1824
tume	-1825
▁Ela	-1826
hunga	-1827
sanke	-1828
▁Dana	-1829
▁Pela	-1830
▁bishi	-1831
▁milau	-1832
shihela	-1833
▁katshi	-1834
▁tshile	-1835
▁tuhita	-1836
▁Kanuena	-1837
▁Shekeme	-1838
▁kulonda	-1839
▁lufuila	-1840
▁muakanu	-1841
▁musambu	-1842
▁kukokesha	-1843
mpu	-1844
diki	-1845
kume	-1846
yena	-1847
▁Oga	-1848
▁din	-1849
▁Mika	-1850
▁Muan	-1851
▁mubi	-1852
ambidi	-1853
▁bindi	-1854
pingana	-1855
tshiama	-1856
▁Abrame	-1857
▁kukema	-1858
▁nshiya	-1859
hingisha	-1860
manyishe	-1861
tuangaji	-1862
▁bakamuambila	-1863
eja	-1864
lwi	-1865
mika	-1866
patu	-1867
teng	-1868
▁uye	-1869
▁Yehu	-1870
▁mitu	-1871
▁bakan	-1872
▁bituha	-1873
▁kuhita	-1874
▁nyunyi	-1875
▁Mukashi	-1876
▁mushale	-1877
▁Hebelone	-1878
▁butshika	-1879
▁wakabika	-1880
▁kuditshiha	-1881
▁Mbulamatadi	-1882
▁Ko	-1883
yoka	-1884
kuasa	-1885
monyi	-1886
ngala	-1887
▁Kade	-1888
▁babi	-1889
▁hanu	-1890
patuka	-1891
tshile	-1892
▁Binua	-1893
▁Eliya	-1894
▁mfumu	-1895
▁miele	-1896
▁yônso	-1897
▁Kabadi	-1898
▁Kabidi	-1899
▁bubidi	-1900
ankatshi	-1901
▁bikuabu	-1902
▁buitshi	-1903
▁matshika	-1904
▁wakalala	-1905
▁bimanyinu	-1906
▁isambombo	-1907
▁mbulamatadi	-1908
alu	-1909
ame	-1910
kai	-1911
kima	-1912
lima	-1913
mota	-1914
sela	-1915
tila	-1916
sandi	-1917
▁nedi	-1918
hikula	-1919
semena	-1920
▁Alabâ	-1921
▁yende	-1922
▁kayiyi	-1923
▁Balaame	-1924
▁neafile	-1925
kija	-1926
kitu	-1927
▁Ele	-1928
▁Shu	-1929
akadi	-1930
pinga	-1931
▁baye	-1932
▁mako	-1933
▁Labane	-1934
▁bidibo	-1935
▁kumuka	-1936
▁ngondu	-1937
▁wakaha	-1938
▁bukuabo	-1939
▁katuena	-1940
▁tshiabo	-1941
▁Nenuikale	-1942
▁tunkanunu	-1943
▁wakabuela	-1944
▁disangisha	-1945
▁netshikale	-1946
▁wakashikama	-1947
ton	-1948
nisi	-1949
teta	-1950
hueke	-1951
nyika	-1952
▁Hole	-1953
▁muaku	-1954
▁mukaj	-1955
bambila	-1956
dimusha	-1957
jimishe	-1958
▁Yehoya	-1959
▁muanze	-1960
▁Wambile	-1961
▁kumanya	-1962
▁tupitene	-1963
▁Bakelenge	-1964
▁Mukalenga	-1965
▁pankatshi	-1966
bela	-1967
fwan	-1968
hana	-1969
kilu	-1970
▁Nea	-1971
ebeka	-1972
idilu	-1973
tshin	-1974
yisha	-1975
▁Abin	-1976
▁Dina	-1977
▁bula	-1978
▁bulu	-1979
▁mata	-1980
▁mika	-1981
▁dishi	-1982
▁nennu	-1983
▁ngabu	-1984
▁ulala	-1985
▁Holeba	-1986
▁bukitu	-1987
▁kabiyi	-1988
▁mamuma	-1989
shikisha	-1990
▁Abalama	-1991
▁makuabo	-1992
bangidilu	-1993
▁bimpanga	-1994
▁muakamba	-1995
kuatshisha	-1996
▁nebakudimune	-1997
nd	-1998
kaja	-1999
kosa	-2000
leka	-2001
zaya	-2002
▁Kul	-2003
▁yai	-2004
▁kamu	-2005
▁kuha	-2006
▁undi	-2007
bulona	-2008
jalame	-2009
▁Muana	-2010
▁anayi	-2011
▁munwa	-2012
shebona	-2013
▁mpenge	-2014
▁nuenze	-2015
▁wakayi	-2016
▁pambidi	-2017
▁Heshebona	-2018
▁kulambula	-2019
▁bakadisangisha	-2020
lan	-2021
nya	-2022
fuka	-2023
lâma	-2024
taha	-2025
▁Uzi	-2026
▁elu	-2027
ngile	-2028
▁Ashû	-2029
sabuke	-2030
▁Belâma	-2031
▁Bukole	-2032
▁bidiye	-2033
▁diboko	-2034
▁kayena	-2035
▁munwam	-2036
▁wakasa	-2037
▁bakuabu	-2038
▁masandi	-2039
▁muibidi	-2040
▁muikale	-2041
▁nuakadi	-2042
▁Bulelela	-2043
▁kuvuisha	-2044
▁wakashala	-2045
▁muakambila	-2046
tê	-2047
kelu	-2048
▁Mpi	-2049
▁bay	-2050
hinga	-2051
kosha	-2052
▁Elea	-2053
▁Netu	-2054
ambule	-2055
fwanka	-2056
nyenga	-2057
▁halua	-2058
▁Labana	-2059
▁Matuku	-2060
▁kunoko	-2061
▁nkuasa	-2062
▁tshipu	-2063
tombokela	-2064
▁Babulona	-2065
▁tshibilu	-2066
▁butshiama	-2067
▁Mutuangaji	-2068
▁Kulondolola	-2069
▁wakanuhatula	-2070
oa	-2071
zâ	-2072
oka	-2073
▁Ek	-2074
anji	-2075
habu	-2076
kete	-2077
vene	-2078
yana	-2079
▁kub	-2080
▁Kaba	-2081
kelela	-2082
▁ntete	-2083
▁nuaku	-2084
kolesha	-2085
▁dionsu	-2086
▁tshibu	-2087
▁tshiyi	-2088
▁Midiyana	-2089
▁nkayandi	-2090
▁nkayende	-2091
▁tshibidi	-2092
▁Tshisamba	-2093
▁nutumikile	-2094
▁kusangakena	-2095
pie	-2096
sui	-2097
▁Ra	-2098
▁ho	-2099
bote	-2100
rayi	-2101
▁nza	-2102
kandi	-2103
kunzu	-2104
mbele	-2105
▁Kumu	-2106
▁Mena	-2107
fatale	-2108
▁kanua	-2109
▁udibu	-2110
fikisha	-2111
lambule	-2112
▁kutudi	-2113
▁lupetu	-2114
▁mujima	-2115
nisitila	-2116
▁buakane	-2117
▁kushiha	-2118
▁malonga	-2119
▁muakenza	-2120
▁tshitalu	-2121
▁baprofete	-2122
▁tshidiidi	-2123
▁munwamfwanka	-2124
bile	-2125
laba	-2126
liya	-2127
▁Uba	-2128
▁alu	-2129
▁lin	-2130
bisha	-2131
hingu	-2132
kwabo	-2133
▁mufu	-2134
▁wabu	-2135
patula	-2136
patule	-2137
▁biabu	-2138
▁Yeleko	-2139
▁kunvua	-2140
▁lukasa	-2141
▁luhingu	-2142
▁mafunda	-2143
pangadika	-2144
yunguluka	-2145
▁Nafatale	-2146
▁wakumuka	-2147
▁nsongalume	-2148
▁wakamuebesha	-2149
▁Ho	-2150
hong	-2151
labo	-2152
luhu	-2153
mama	-2154
mamw	-2155
▁Yoa	-2156
nvuai	-2157
sengu	-2158
shiba	-2159
▁Uvua	-2160
▁Yebu	-2161
▁bayi	-2162
▁bela	-2163
▁bina	-2164
▁bita	-2165
▁hadi	-2166
▁udia	-2167
teleja	-2168
▁Abinê	-2169
kumbane	-2170
▁buanda	-2171
▁buende	-2172
▁dilolu	-2173
▁hatuhu	-2174
▁munuhe	-2175
▁tshiko	-2176
kankunde	-2177
ngambila	-2178
▁kuitaba	-2179
▁mutumba	-2180
anyikishi	-2181
▁kapitene	-2182
▁muanende	-2183
▁musungule	-2184
▁bisambombo	-2185
▁diakalenga	-2186
▁mushikankunde	-2187
zê	-2188
mvu	-2189
▁Lo	-2190
bama	-2191
▁Ese	-2192
▁Nga	-2193
▁Yar	-2194
▁mme	-2195
▁uku	-2196
lwilu	-2197
▁kana	-2198
▁tume	-2199
▁ulua	-2200
balabo	-2201
buebue	-2202
tshilu	-2203
▁buowa	-2204
▁diabu	-2205
▁kuetu	-2206
▁mpuka	-2207
▁tshie	-2208
▁Eleazâ	-2209
▁bulalu	-2210
▁kanuba	-2211
▁Yardene	-2212
▁lumingu	-2213
kunzubile	-2214
▁babikila	-2215
▁tshitoke	-2216
▁kubambila	-2217
▁tshiakabidi	-2218
daba	-2219
dona	-2220
nona	-2221
ongu	-2222
▁una	-2223
mumue	-2224
ulula	-2225
▁meyi	-2226
▁muna	-2227
▁benda	-2228
▁bônso	-2229
▁handi	-2230
▁muhia	-2231
▁nemmu	-2232
▁tuabo	-2233
▁umona	-2234
▁wenda	-2235
ikaleye	-2236
▁Hakadi	-2237
▁kuenda	-2238
▁mvinyo	-2239
bandisha	-2240
▁kabiena	-2241
▁matunga	-2242
tshintshi	-2243
▁Muakuidi	-2244
▁kanuenji	-2245
▁tshianana	-2246
▁balumbuluishi	-2247
eme	-2248
twa	-2249
kita	-2250
lolo	-2251
mita	-2252
welu	-2253
▁ina	-2254
bangu	-2255
lengu	-2256
owelu	-2257
▁Binu	-2258
▁Naku	-2259
▁ende	-2260
▁nebe	-2261
oshila	-2262
▁Esetê	-2263
▁Monai	-2264
▁banze	-2265
▁idibo	-2266
miamine	-2267
tabusha	-2268
▁dionso	-2269
▁kadiyi	-2270
▁kasulu	-2271
▁nenuba	-2272
▁luevene	-2273
▁mikuabu	-2274
▁milongo	-2275
▁Tshimamw	-2276
▁tshijima	-2277
▁wakamana	-2278
▁muanabute	-2279
▁wakabanga	-2280
▁wakatamba	-2281
▁diakalengele	-2282
iha	-2283
▁De	-2284
▁Ef	-2285
▁Mâ	-2286
▁Anu	-2287
▁Sei	-2288
handi	-2289
▁Kale	-2290
▁Mayi	-2291
▁Môde	-2292
▁habo	-2293
▁hana	-2294
▁lule	-2295
▁maku	-2296
himinu	-2297
nyanga	-2298
▁buatu	-2299
▁mbila	-2300
▁nkaya	-2301
kebesha	-2302
▁buhika	-2303
▁nsengu	-2304
▁Amaleka	-2305
▁Môdekai	-2306
▁bakafua	-2307
buikidila	-2308
▁tshivulu	-2309
angatshila	-2310
▁bakaluhuka	-2311
▁Hakatangila	-2312
▁kulondolola	-2313
▁wakatangila	-2314
▁bilondeshile	-2315
uwa	-2316
▁Li	-2317
▁mo	-2318
dada	-2319
▁diu	-2320
▁she	-2321
handa	-2322
sombu	-2323
▁mifu	-2324
▁nuya	-2325
kanuha	-2326
▁Kongu	-2327
▁Leban	-2328
▁nsuki	-2329
▁Ânona	-2330
kumbana	-2331
sangane	-2332
▁Rakele	-2333
▁bakela	-2334
▁batanu	-2335
▁manvua	-2336
sakidile	-2337
▁hanuaka	-2338
▁lupangu	-2339
▁nenudie	-2340
▁bakumuka	-2341
▁hakadiye	-2342
▁kutshina	-2343
▁lubuebue	-2344
▁wakafila	-2345
▁bitangila	-2346
vw	-2347
▁wi	-2348
bula	-2349
fidi	-2350
leja	-2351
ondo	-2352
tuha	-2353
▁luh	-2354
anudi	-2355
▁Enza	-2356
▁Mela	-2357
▁yetu	-2358
lamate	-2359
▁Bavua	-2360
▁buetu	-2361
▁inudi	-2362
▁neadi	-2363
dambula	-2364
langala	-2365
▁Balaka	-2366
▁Kanudi	-2367
▁bafila	-2368
▁bujima	-2369
▁kamama	-2370
▁mupika	-2371
▁buatshi	-2372
▁bubanji	-2373
▁tshieya	-2374
▁tuakadi	-2375
tatshisha	-2376
▁kuenzela	-2377
▁tshidibo	-2378
▁kunyemena	-2379
▁nenumushe	-2380
gi	-2381
fele	-2382
▁Ada	-2383
▁Eke	-2384
▁kaa	-2385
▁uya	-2386
shela	-2387
▁Kaku	-2388
▁Sude	-2389
enzeka	-2390
▁lumue	-2391
▁nzala	-2392
▁unudi	-2393
mueneka	-2394
sungile	-2395
tangidi	-2396
▁Nganyi	-2397
▁Yebuse	-2398
▁banudi	-2399
▁buanga	-2400
▁bukoya	-2401
▁muhele	-2402
kengeshe	-2403
vwangana	-2404
▁Kadeshe	-2405
▁bamfumu	-2406
▁kumusha	-2407
▁Bakumuka	-2408
▁Lebanona	-2409
▁tshisatu	-2410
▁Bukokeshi	-2411
▁mumuambile	-2412
tangilangane	-2413
edi	-2414
ssa	-2415
âyi	-2416
▁Ad	-2417
▁Eu	-2418
▁Zi	-2419
beya	-2420
heta	-2421
keye	-2422
▁Ebu	-2423
buedi	-2424
jinga	-2425
▁Bene	-2426
▁Nowa	-2427
▁Sala	-2428
▁dihe	-2429
▁yabi	-2430
buesha	-2431
▁Anaka	-2432
▁neumu	-2433
▁wakun	-2434
pingane	-2435
▁Pelata	-2436
▁Yoasha	-2437
▁bakasa	-2438
▁kupeta	-2439
▁basombe	-2440
tentekedi	-2441
▁bakimana	-2442
▁buatshia	-2443
▁muanjelo	-2444
▁tshitshu	-2445
▁neanutumine	-2446
▁Tshimamwenda	-2447
▁wakamukudimuna	-2448
▁;	-2449
dre	-2450
▁mw	-2451
bute	-2452
dila	-2453
kame	-2454
kola	-2455
onga	-2456
onyi	-2457
shai	-2458
yeme	-2459
▁Kua	-2460
▁Yai	-2461
longe	-2462
shipa	-2463
songu	-2464
teeka	-2465
▁Leha	-2466
▁bibu	-2467
▁disu	-2468
▁kale	-2469
▁nuye	-2470
▁Amasa	-2471
▁Amore	-2472
▁benze	-2473
▁efoda	-2474
▁mbana	-2475
▁mukau	-2476
▁nyoka	-2477
▁panyi	-2478
▁Hamana	-2479
▁kanuhu	-2480
▁kulama	-2481
▁wikala	-2482
▁bifunda	-2483
▁dihembu	-2484
▁dikisha	-2485
▁kuimana	-2486
▁ntambue	-2487
▁tshiota	-2488
▁bakadila	-2489
▁kubikila	-2490
▁tshisaka	-2491
▁bakangata	-2492
▁buakalaya	-2493
▁mushikame	-2494
▁nengikale	-2495
▁batuangaji	-2496
▁kukumbasha	-2497
mâ	-2498
ger	-2499
▁Au	-2500
▁bl	-2501
▁se	-2502
bata	-2503
hone	-2504
loho	-2505
▁Ana	-2506
▁Han	-2507
▁Neu	-2508
▁Nua	-2509
banyi	-2510
enese	-2511
haula	-2512
yenza	-2513
▁bami	-2514
▁hawa	-2515
▁inai	-2516
▁kilo	-2517
▁miku	-2518
bikile	-2519
kunyua	-2520
nganyi	-2521
ssager	-2522
▁binai	-2523
▁muadi	-2524
▁neban	-2525
buelelu	-2526
▁midima	-2527
kalayeye	-2528
▁muimane	-2529
▁nebadie	-2530
tendeledi	-2531
▁Hakunvua	-2532
▁Nudimuke	-2533
▁Yehoyada	-2534
▁baluishi	-2535
▁menemene	-2536
▁nsongaka	-2537
▁tshilema	-2538
▁mukajende	-2539
▁wakakonka	-2540
▁wakebesha	-2541
▁tshimanyinu	-2542
lw	-2543
▁:	-2544
▁Ti	-2545
bene	-2546
doka	-2547
live	-2548
sakâ	-2549
▁Nyu	-2550
emeka	-2551
mbule	-2552
▁Diba	-2553
▁Yesh	-2554
▁bunu	-2555
▁bûle	-2556
badika	-2557
nvuila	-2558
tahulu	-2559
vuishe	-2560
▁Yishe	-2561
▁biuma	-2562
▁misue	-2563
benzele	-2564
buelemu	-2565
kumbaje	-2566
tenteka	-2567
▁Yisakâ	-2568
▁difuma	-2569
▁dikalu	-2570
▁dikima	-2571
▁mpunde	-2572
▁ngumbu	-2573
ambileye	-2574
▁kabuena	-2575
▁lukuabo	-2576
▁muelelu	-2577
▁neangate	-2578
▁bakashala	-2579
lumbuluisha	-2580
▁kujadikamu	-2581
▁kukuatshila	-2582
▁tshifuanyikishi	-2583
▁C	-2584
adi	-2585
oni	-2586
ule	-2587
ande	-2588
hete	-2589
heye	-2590
kutu	-2591
laye	-2592
sele	-2593
▁Ata	-2594
▁Lua	-2595
▁Noa	-2596
▁eku	-2597
▁mma	-2598
▁ndu	-2599
leeja	-2600
minyi	-2601
▁Gide	-2602
▁Hiti	-2603
▁Katu	-2604
▁Lefa	-2605
▁Nuna	-2606
▁mito	-2607
anjila	-2608
vuluka	-2609
▁kaayi	-2610
▁olive	-2611
yangana	-2612
▁Genese	-2613
▁Lakele	-2614
▁Sadoka	-2615
▁Sinayi	-2616
▁kanumu	-2617
▁kulala	-2618
▁kutuma	-2619
▁maboko	-2620
▁madilu	-2621
▁munudi	-2622
▁nkunyi	-2623
patukila	-2624
▁kubenga	-2625
▁mishiku	-2626
▁mushihi	-2627
▁mutambe	-2628
mvwangana	-2629
▁Nuvuluke	-2630
▁kuoshila	-2631
▁tshimuna	-2632
▁tshiseba	-2633
jimishibua	-2634
▁Mpindiewu	-2635
▁Witabushe	-2636
▁mpindiewu	-2637
▁nebashihe	-2638
▁tshikunze	-2639
▁tshiowelu	-2640
▁tshitekelu	-2641
▁Tshibangidilu	-2642
▁inakunuambila	-2643
▁Ru	-2644
▁bâ	-2645
▁su	-2646
buka	-2647
dana	-2648
futa	-2649
huya	-2650
lole	-2651
▁kau	-2652
besha	-2653
ngata	-2654
▁Lama	-2655
▁buna	-2656
▁kamp	-2657
▁nayi	-2658
▁nôde	-2659
kidilu	-2660
kimana	-2661
▁mikon	-2662
▁minda	-2663
▁utshi	-2664
botesha	-2665
sombela	-2666
▁Kuenza	-2667
▁Rubene	-2668
▁bimuma	-2669
▁buenza	-2670
▁bupika	-2671
▁kakuyi	-2672
▁mikalu	-2673
▁mikole	-2674
▁minene	-2675
▁muambe	-2676
▁mukala	-2677
▁mulaye	-2678
▁padiye	-2679
muangala	-2680
ngambile	-2681
shikishe	-2682
sunguile	-2683
▁katuaka	-2684
▁mulongo	-2685
▁nebalue	-2686
▁Lehabama	-2687
▁katshiyi	-2688
▁muambile	-2689
▁tshilota	-2690
▁wakimana	-2691
▁kupingana	-2692
▁kushikama	-2693
▁mulangala	-2694
▁kukobolola	-2695
▁kumanyisha	-2696
ci	-2697
leu	-2698
▁Ai	-2699
▁Eb	-2700
▁To	-2701
▁kû	-2702
kune	-2703
toba	-2704
vuba	-2705
yila	-2706
zela	-2707
▁Bak	-2708
▁Kui	-2709
▁dib	-2710
idika	-2711
ilama	-2712
kasha	-2713
ntaka	-2714
tonda	-2715
▁Mila	-2716
▁bibo	-2717
▁bleu	-2718
bueshe	-2719
buluna	-2720
kidika	-2721
nyinyi	-2722
▁Shema	-2723
▁bumue	-2724
▁bundi	-2725
▁luaka	-2726
▁metre	-2727
▁ufila	-2728
buelela	-2729
▁Balume	-2730
▁bapika	-2731
▁mulami	-2732
▁tshisu	-2733
sakidila	-2734
▁Dishiba	-2735
▁Nenudie	-2736
▁bakatua	-2737
▁biakane	-2738
▁kanuaka	-2739
▁kuhiana	-2740
▁nkambua	-2741
tendekena	-2742
vulangana	-2743
▁Dibadika	-2744
▁Zebuluna	-2745
▁bakahingana	-2746
▁neanuvudishile	-2747
▁hanuajimishibua	-2748
asa	-2749
ipa	-2750
▁bw	-2751
▁pe	-2752
daya	-2753
koka	-2754
miya	-2755
tama	-2756
▁Nom	-2757
mpelo	-2758
muene	-2759
▁kuny	-2760
▁umwe	-2761
▁Muaba	-2762
▁banya	-2763
▁buabu	-2764
▁maalu	-2765
▁mvula	-2766
▁ukina	-2767
▁umvua	-2768
manyika	-2769
▁Angata	-2770
▁Bakulu	-2771
▁Kohata	-2772
▁Unvuai	-2773
▁miloho	-2774
▁mudiye	-2775
▁utamba	-2776
▁wesete	-2777
hingashe	-2778
huekesha	-2779
shangana	-2780
▁Gibeona	-2781
▁Menashe	-2782
▁kunanga	-2783
▁mikanda	-2784
▁tshishi	-2785
▁Hakafika	-2786
▁Shimeona	-2787
▁neashale	-2788
▁wakadiye	-2789
tandatanda	-2790
▁nenjadike	-2791
▁wakahidia	-2792
▁tshikowelu	-2793
▁kabakamanya	-2794
▁bilondeshila	-2795
▁tunkanunuina	-2796
sâ	-2797
abu	-2798
▁Bâ	-2799
kudi	-2800
kâya	-2801
lond	-2802
zare	-2803
▁nfi	-2804
ilega	-2805
lanta	-2806
mbana	-2807
mpala	-2808
olole	-2809
▁Biwa	-2810
▁Hana	-2811
▁Lota	-2812
▁Lufu	-2813
▁mban	-2814
▁wako	-2815
butule	-2816
huahua	-2817
rayime	-2818
▁Binya	-2819
▁Sheme	-2820
▁Wamba	-2821
▁bafue	-2822
▁dinua	-2823
▁inayi	-2824
▁kaena	-2825
▁neaku	-2826
hungeye	-2827
jimisha	-2828
kanyika	-2829
longolu	-2830
sambaka	-2831
▁Zekâya	-2832
▁bakane	-2833
▁bilota	-2834
▁biseba	-2835
▁mikete	-2836
▁ndanda	-2837
▁uvuaye	-2838
anangane	-2839
ndambule	-2840
sombesha	-2841
▁Bashela	-2842
▁Bisamba	-2843
▁Elazare	-2844
▁Kakuena	-2845
▁bikunze	-2846
▁dilonga	-2847
▁kuakadi	-2848
▁muakuny	-2849
▁nshingu	-2850
▁panyima	-2851
▁diakalua	-2852
▁nedikale	-2853
▁nkayanyi	-2854
▁ntalanta	-2855
▁wakamona	-2856
ambuluisha	-2857
▁Binyamine	-2858
▁Kanuikadi	-2859
▁bakanyema	-2860
▁banulonda	-2861
▁kasombela	-2862
▁dipatukila	-2863
▁tshibuelelu	-2864
tshintshimika	-2865
▁bansongalume	-2866
▁wakasangisha	-2867
DI	-2868
▁Gê	-2869
▁ko	-2870
keng	-2871
lana	-2872
meli	-2873
rame	-2874
vuwe	-2875
wabe	-2876
▁Nge	-2877
▁ûdi	-2878
ihata	-2879
▁Kudi	-2880
▁Neng	-2881
▁base	-2882
▁biwa	-2883
▁mate	-2884
jadiki	-2885
keluba	-2886
layeye	-2887
lualua	-2888
oshile	-2889
▁dietu	-2890
▁luabo	-2891
▁mpoko	-2892
▁nkaye	-2893
▁pavua	-2894
anabute	-2895
andisha	-2896
fundile	-2897
kuakadi	-2898
miamina	-2899
sungidi	-2900
▁Mowabe	-2901
▁bukese	-2902
▁mifuba	-2903
▁mikata	-2904
▁mpangu	-2905
▁muanji	-2906
▁tubidi	-2907
▁tumelo	-2908
▁Gideona	-2909
▁bivuaye	-2910
▁diakane	-2911
▁dikombu	-2912
▁diolola	-2913
▁luhangu	-2914
▁tshibui	-2915
tendelele	-2916
▁bidiunda	-2917
▁bioshelu	-2918
▁neyikale	-2919
▁wakadila	-2920
▁wakajuka	-2921
▁bakulumpe	-2922
▁bakamujika	-2923
▁buakenzeye	-2924
▁kumuambila	-2925
▁binuatumikila	-2926
go	-2927
nge	-2928
▁hu	-2929
hate	-2930
mvue	-2931
tand	-2932
vule	-2933
yata	-2934
▁Ami	-2935
▁kab	-2936
▁mub	-2937
▁uyi	-2938
hambu	-2939
kuama	-2940
landa	-2941
leshe	-2942
onshi	-2943
êmona	-2944
▁Hama	-2945
▁Lelu	-2946
▁Leya	-2947
▁Lote	-2948
▁bifu	-2949
▁kupi	-2950
▁mela	-2951
▁sude	-2952
▁wela	-2953
kuenza	-2954
luisha	-2955
mikidi	-2956
nemeke	-2957
▁Bimpe	-2958
▁Ezela	-2959
▁Halua	-2960
▁Tshia	-2961
▁badia	-2962
▁buaku	-2963
▁neaye	-2964
bangeye	-2965
buikile	-2966
kukuila	-2967
kumbaja	-2968
▁Kaleba	-2969
▁Kanana	-2970
▁Melali	-2971
▁Natana	-2972
▁ashale	-2973
▁bakabi	-2974
▁bimana	-2975
▁majitu	-2976
▁nakadi	-2977
▁neafue	-2978
▁ulenga	-2979
▁Milambu	-2980
▁Mukenji	-2981
▁bashale	-2982
▁bobumue	-2983
▁kubanda	-2984
▁kuyenza	-2985
▁makunji	-2986
▁musombe	-2987
tentekela	-2988
▁ditshina	-2989
▁kujikija	-2990
▁kusabuka	-2991
▁messager	-2992
▁nenufile	-2993
ambuluishe	-2994
▁binuikala	-2995
▁kanuikadi	-2996
▁tshibumba	-2997
▁wakamukonka	-2998
▁diumvwangana	-2999
▁mishilangane	-3000
▁tshivulukidi	-3001
▁tshiakahungeye	-3002
ên	-3003
▁mû	-3004
kaya	-3005
kuba	-3006
liba	-3007
taba	-3008
yota	-3009
▁Adi	-3010
▁Lea	-3011
▁Uye	-3012
▁die	-3013
ishai	-3014
kanku	-3015
kondu	-3016
lueye	-3017
shone	-3018
▁Bika	-3019
▁anji	-3020
▁kâyi	-3021
▁mapa	-3022
▁mmei	-3023
badike	-3024
ongamu	-3025
▁Shimi	-3026
▁Sinai	-3027
▁Yehoa	-3028
▁muebe	-3029
▁neabi	-3030
anyisha	-3031
ilegala	-3032
kandika	-3033
kengela	-3034
tshishi	-3035
vudishe	-3036
▁Benaya	-3037
▁Hêmona	-3038
▁Rebeka	-3039
▁baledi	-3040
▁bidibu	-3041
▁didibo	-3042
▁kujika	-3043
▁kupita	-3044
▁makane	-3045
▁mpanza	-3046
▁mununu	-3047
▁nenubi	-3048
▁tuandi	-3049
▁ubuela	-3050
kuenzela	-3051
▁Mulambu	-3052
▁Yoshuwa	-3053
▁kukuata	-3054
▁kutuala	-3055
▁matamba	-3056
▁tshietu	-3057
▁tshiina	-3058
▁wakadia	-3059
longolole	-3060
▁Bienzedi	-3061
▁Efrayime	-3062
▁Tangilai	-3063
▁buenzayi	-3064
▁kabakadi	-3065
▁nubienze	-3066
▁tshikale	-3067
▁usungula	-3068
angatshile	-3069
▁wakahueka	-3070
▁wakumusha	-3071
▁Shimishona	-3072
▁hakabangeye	-3073
▁bakaluangana	-3074
bî	-3075
zû	-3076
ani	-3077
lwa	-3078
tai	-3079
▁de	-3080
doma	-3081
fume	-3082
heme	-3083
jike	-3084
kute	-3085
luma	-3086
sode	-3087
tane	-3088
undi	-3089
▁Die	-3090
▁blé	-3091
▁bun	-3092
pandu	-3093
shobo	-3094
ulama	-3095
▁Yize	-3096
▁indi	-3097
▁mile	-3098
▁nuyi	-3099
fileye	-3100
mbusha	-3101
muangi	-3102
sabata	-3103
▁Ebelu	-3104
▁Ngade	-3105
▁Nyuma	-3106
▁bimbi	-3107
▁kavua	-3108
▁kusua	-3109
▁luebe	-3110
▁muabu	-3111
fikishe	-3112
kokeshe	-3113
mpakane	-3114
ngalala	-3115
songabo	-3116
tuadija	-3117
▁Balake	-3118
▁Bumuka	-3119
▁bakatu	-3120
▁bitaku	-3121
▁bitupa	-3122
▁bulema	-3123
▁disatu	-3124
▁kakanu	-3125
▁kudila	-3126
▁mbantu	-3127
▁mitoto	-3128
▁muhuya	-3129
▁mukaba	-3130
▁ngenyi	-3131
▁Ahazaya	-3132
▁Bakuidi	-3133
▁Ekesode	-3134
▁Lumingu	-3135
▁Yishema	-3136
▁bivuabu	-3137
▁mumanyi	-3138
▁Gilegala	-3139
▁Hakahita	-3140
▁bakafika	-3141
▁buakuidi	-3142
▁mahuahua	-3143
▁tshinudi	-3144
▁tshisuku	-3145
▁wakolola	-3146
▁asambombu	-3147
▁bakamanya	-3148
▁wakalonda	-3149
▁Beteleheme	-3150
▁kundambula	-3151
▁makookeshi	-3152
▁wakatumina	-3153
▁dilumbulula	-3154
▁kujingulula	-3155
▁kulongolola	-3156
▁wakamushiha	-3157
▁wakamulelela	-3158
nea	-3159
▁Bo	-3160
hote	-3161
kene	-3162
pele	-3163
soku	-3164
tudi	-3165
beena	-3166
kanua	-3167
mbedi	-3168
mbeye	-3169
tanta	-3170
▁Gata	-3171
▁Sara	-3172
▁bang	-3173
▁bûdi	-3174
▁dike	-3175
▁dinu	-3176
▁kusu	-3177
▁mupu	-3178
▁mvua	-3179
▁newa	-3180
kadidi	-3181
yemene	-3182
▁Mushi	-3183
▁Uliya	-3184
▁Uziya	-3185
▁banai	-3186
▁banji	-3187
▁kanyi	-3188
▁kumon	-3189
kenzabo	-3190
mbulula	-3191
pingaja	-3192
▁Lebeka	-3193
▁Shimei	-3194
▁Yishai	-3195
▁buluka	-3196
▁divuba	-3197
▁gilada	-3198
▁kikadi	-3199
▁kunshi	-3200
▁lukita	-3201
▁makuta	-3202
▁uhidia	-3203
angatshi	-3204
▁Masanka	-3205
▁bakadia	-3206
▁katshia	-3207
▁miakane	-3208
▁mifunda	-3209
▁mumonyi	-3210
▁ndituku	-3211
▁tangila	-3212
▁tshindi	-3213
sanganabo	-3214
▁bakabika	-3215
▁tshikese	-3216
▁wakamuha	-3217
▁wakunvua	-3218
▁bakabuela	-3219
▁bakalonda	-3220
▁bakulumpa	-3221
▁balambula	-3222
▁bashikame	-3223
▁mpukahuka	-3224
▁wakabanda	-3225
▁kushikisha	-3226
▁nsongakaji	-3227
▁tshibidilu	-3228
kanyunguluka	-3229
▁wakamuidika	-3230
EN	-3231
kû	-3232
ue	-3233
any	-3234
ehu	-3235
rne	-3236
▁An	-3237
▁Re	-3238
boku	-3239
jile	-3240
lizi	-3241
mune	-3242
puka	-3243
sepa	-3244
soso	-3245
tont	-3246
yone	-3247
▁aye	-3248
▁ntu	-3249
▁Kola	-3250
▁Mala	-3251
▁hetu	-3252
▁mulo	-3253
▁nuba	-3254
bulula	-3255
fikulu	-3256
kokedi	-3257
lwisha	-3258
mbuedi	-3259
shinda	-3260
sokoka	-3261
yukula	-3262
▁Gibea	-3263
▁Wenze	-3264
▁banua	-3265
▁bânea	-3266
▁dindi	-3267
▁kuvua	-3268
sambuka	-3269
▁Panudi	-3270
▁Sodoma	-3271
▁dibaka	-3272
▁kuende	-3273
▁mikono	-3274
▁mulale	-3275
▁munupe	-3276
▁mweena	-3277
▁nakamu	-3278
▁nsambu	-3279
▁uvuabu	-3280
fikuluke	-3281
sombuedi	-3282
sombuela	-3283
tahulula	-3284
▁Amasaya	-3285
▁Katuena	-3286
▁Shemaya	-3287
▁Tshiaka	-3288
▁kulomba	-3289
▁makuabu	-3290
▁muanenu	-3291
▁nuhiane	-3292
▁tshiabu	-3293
hongolole	-3294
lengulula	-3295
nganyinga	-3296
vulambedi	-3297
▁Yizelele	-3298
▁bakafila	-3299
▁itangila	-3300
▁mashinde	-3301
▁ndongamu	-3302
▁tshilele	-3303
▁utangila	-3304
kangambila	-3305
longoluela	-3306
▁Bakambila	-3307
▁bubotesha	-3308
▁umuambila	-3309
▁wakakuata	-3310
▁wakenzela	-3311
▁Nutumikile	-3312
▁Tshimuangi	-3313
▁bakanyenga	-3314
▁bibutshilu	-3315
▁bakabashiha	-3316
▁kumonangana	-3317
▁kudikobolola	-3318
▁kunshikidilu	-3319
▁kuntendelela	-3320
▁nakanuambila	-3321
▁Balumbuluishi	-3322
ca	-3323
ur	-3324
▁Ar	-3325
▁Un	-3326
▁Za	-3327
▁ci	-3328
▁cè	-3329
▁lw	-3330
fuen	-3331
hasa	-3332
ênze	-3333
▁Ebi	-3334
▁Utu	-3335
disha	-3336
hisha	-3337
itabe	-3338
jimbu	-3339
luila	-3340
mesha	-3341
ntume	-3342
sanji	-3343
sheba	-3344
▁Eshe	-3345
▁mana	-3346
▁orge	-3347
▁tele	-3348
▁tuye	-3349
luhuke	-3350
lukila	-3351
lulula	-3352
sesuki	-3353
sokoki	-3354
sokoma	-3355
▁Asafa	-3356
▁Kuena	-3357
▁Mfumu	-3358
▁Pavua	-3359
▁Shilo	-3360
▁balue	-3361
▁cèdre	-3362
▁efode	-3363
▁kunzû	-3364
▁muitu	-3365
▁mupie	-3366
▁ukeba	-3367
▁wenze	-3368
sangila	-3369
shiheye	-3370
shilula	-3371
tshiabu	-3372
tuadile	-3373
▁Mukaji	-3374
▁Sidona	-3375
▁bakayi	-3376
▁bakole	-3377
▁bateke	-3378
▁budimu	-3379
▁bunvue	-3380
▁dikale	-3381
▁kalolo	-3382
▁kukeba	-3383
▁mudibo	-3384
▁mukese	-3385
▁mumone	-3386
itabushi	-3387
▁Amenona	-3388
▁Bakenza	-3389
▁Numanye	-3390
▁Uvuluke	-3391
▁bashala	-3392
▁dilomba	-3393
▁kwikala	-3394
▁muakaba	-3395
▁neafute	-3396
▁nkayebe	-3397
▁wakatua	-3398
handuluke	-3399
matshisha	-3400
▁bakahita	-3401
▁bakeluba	-3402
▁bunuyaya	-3403
▁kubahabu	-3404
▁makelela	-3405
▁nenuenze	-3406
▁tshitela	-3407
kuatshishe	-3408
▁tshikuabu	-3409
▁wakanyema	-3410
▁Wakabikila	-3411
▁Yishemaele	-3412
▁kuhingisha	-3413
▁kungenzela	-3414
▁tshikokedi	-3415
▁wakaluhuka	-3416
▁bakabalonda	-3417
▁tshibambalu	-3418
▁tshibuikidi	-3419
▁bitandatanda	-3420
▁wakakudimuna	-3421
▁bakashikamamu	-3422
▁kanubatshinyi	-3423
▁kanyinganyinga	-3424
tâ	-3425
cia	-3426
tue	-3427
▁Bê	-3428
▁Go	-3429
▁MU	-3430
bule	-3431
feta	-3432
hila	-3433
loke	-3434
tion	-3435
▁Ngo	-3436
▁Umu	-3437
▁biw	-3438
▁emu	-3439
▁nun	-3440
▁peô	-3441
bidie	-3442
huidi	-3443
luate	-3444
muela	-3445
sunga	-3446
▁Bela	-3447
▁Mâka	-3448
▁bako	-3449
▁biba	-3450
▁tuku	-3451
endela	-3452
lamika	-3453
ngisha	-3454
nvuile	-3455
sukule	-3456
ûmushe	-3457
▁Adoni	-3458
▁Ahaza	-3459
▁Eleya	-3460
▁Sheba	-3461
▁Shela	-3462
▁akanu	-3463
▁muetu	-3464
▁pende	-3465
▁tuebe	-3466
▁wakau	-3467
buhiane	-3468
mbileye	-3469
sombelu	-3470
tuadije	-3471
▁Bakadi	-3472
▁Dipita	-3473
▁Lamota	-3474
▁Nuenze	-3475
▁bimane	-3476
▁kanubi	-3477
▁kumvua	-3478
▁kuyabu	-3479
▁matutu	-3480
▁mbingu	-3481
▁nebabi	-3482
▁wakula	-3483
shangane	-3484
▁Bakalua	-3485
▁bayende	-3486
▁diatshi	-3487
▁kukonka	-3488
kenzeleye	-3489
sambakaja	-3490
sangakene	-3491
tontolola	-3492
▁Bikaleye	-3493
▁ahingane	-3494
▁kuikisha	-3495
▁musokoko	-3496
▁neambile	-3497
▁ntempelo	-3498
▁ntshintu	-3499
▁tshidiye	-3500
▁tshifufu	-3501
londangane	-3502
▁balombodi	-3503
▁bukokeshi	-3504
▁kakuakadi	-3505
▁mukuatshi	-3506
▁wakafunda	-3507
▁Minisitila	-3508
▁Ubadimusha	-3509
▁bakabalabo	-3510
▁bunakalaya	-3511
▁busangisha	-3512
▁bishimikidi	-3513
▁bitendelelu	-3514
▁buakalayeye	-3515
▁tshibuikilu	-3516
▁tunkanunuma	-3517
▁wakamueneka	-3518
▁Nakanuambila	-3519
▁kunumanyisha	-3520
▁wakaditshiha	-3521
▁wakatuhatula	-3522
ata	-3523
bio	-3524
▁Kî	-3525
▁Te	-3526
beda	-3527
fofo	-3528
ouve	-3529
pata	-3530
▁Man	-3531
▁Nde	-3532
▁bau	-3533
▁ubu	-3534
hamue	-3535
losha	-3536
meshe	-3537
pembu	-3538
shiye	-3539
yenge	-3540
▁Hile	-3541
▁Kora	-3542
▁Zela	-3543
▁nkon	-3544
balaya	-3545
nyenge	-3546
tshihe	-3547
tulabo	-3548
▁Azaya	-3549
▁Dibue	-3550
▁Ebala	-3551
▁Nomba	-3552
▁disua	-3553
▁hanyi	-3554
▁nulue	-3555
▁pamwe	-3556
▁tshiu	-3557
▁unaka	-3558
ngalata	-3559
vudisha	-3560
▁Bimuna	-3561
▁Buonso	-3562
▁Butuku	-3563
▁Misepa	-3564
▁Ntenta	-3565
▁bienza	-3566
▁butaka	-3567
▁buwaka	-3568
▁ditutu	-3569
▁kabalu	-3570
▁kabulu	-3571
▁kabuyi	-3572
▁maloba	-3573
▁nakaba	-3574
▁natshi	-3575
▁neambe	-3576
▁wakaku	-3577
kuambila	-3578
sangishi	-3579
sunguila	-3580
▁Dikunze	-3581
▁Kapangu	-3582
▁Shaluma	-3583
▁Yoshiya	-3584
▁bilwilu	-3585
▁bumfumu	-3586
▁kushipa	-3587
▁matumba	-3588
▁midioko	-3589
▁mulondo	-3590
▁wakenda	-3591
jingulula	-3592
▁Hilekiya	-3593
▁bakateka	-3594
▁batekete	-3595
▁bihiminu	-3596
▁bitekelu	-3597
▁hakadibo	-3598
▁kukudimu	-3599
▁nakamana	-3600
▁tshibelu	-3601
▁wakafika	-3602
▁wakafuma	-3603
▁wakatshi	-3604
shikisheye	-3605
▁Dielulula	-3606
▁disambuka	-3607
▁mulombodi	-3608
▁tshipungu	-3609
uakatangila	-3610
▁neatangile	-3611
▁wakahatuka	-3612
▁wakalekela	-3613
▁wakanyenga	-3614
hingishilula	-3615
sungulangana	-3616
▁bamuanabute	-3617
▁batentekedi	-3618
▁biakadiunda	-3619
▁mapangadika	-3620
▁mihanduluke	-3621
abo	-3622
eni	-3623
mui	-3624
uta	-3625
▁gr	-3626
fune	-3627
kaje	-3628
labe	-3629
lale	-3630
lamu	-3631
many	-3632
mate	-3633
oaza	-3634
tedi	-3635
tuke	-3636
wele	-3637
wila	-3638
▁Aga	-3639
▁Aza	-3640
▁Ede	-3641
▁aca	-3642
elede	-3643
hungu	-3644
ipate	-3645
shawe	-3646
tengu	-3647
▁Hiwi	-3648
▁Meku	-3649
▁kupu	-3650
▁nadi	-3651
▁nean	-3652
anguke	-3653
hehele	-3654
jimina	-3655
mbishe	-3656
tshipa	-3657
▁Boaza	-3658
▁Bâsha	-3659
▁Mabue	-3660
▁Obeda	-3661
▁grena	-3662
▁hamue	-3663
▁kunzu	-3664
▁mmalu	-3665
▁muudi	-3666
▁nuvua	-3667
▁nênze	-3668
▁utudi	-3669
▁uwaku	-3670
banyina	-3671
lombela	-3672
nyukule	-3673
tomboka	-3674
▁Kîyata	-3675
▁Mikaya	-3676
▁Mulume	-3677
▁Nakadi	-3678
▁Yefeta	-3679
▁acacia	-3680
▁bawaka	-3681
▁bululu	-3682
▁difila	-3683
▁dikoba	-3684
▁katuyi	-3685
▁kuimba	-3686
▁lwendu	-3687
▁mateta	-3688
▁mbimpe	-3689
▁mutoke	-3690
▁nebaye	-3691
▁nshobo	-3692
▁padibu	-3693
sombeshe	-3694
▁Dikisha	-3695
▁Gêshona	-3696
▁Nuikale	-3697
▁bibanda	-3698
▁dikuabu	-3699
▁hohamue	-3700
▁kuihata	-3701
▁kusumba	-3702
▁mibangu	-3703
▁mulunda	-3704
▁muvuaye	-3705
▁nkayabu	-3706
▁tshiaku	-3707
▁Ahashawe	-3708
▁Tshidimu	-3709
▁akenzeye	-3710
▁kuambula	-3711
▁lujalame	-3712
▁muananyi	-3713
▁nebunvue	-3714
▁ulambula	-3715
▁wakuenza	-3716
nyunguluka	-3717
▁Tunkanunu	-3718
▁dianyisha	-3719
▁tshiakane	-3720
▁wakamanya	-3721
▁budikadidi	-3722
▁muakenzeye	-3723
▁wakalelela	-3724
▁Tshihungidi	-3725
▁bakasungula	-3726
▁batendelela	-3727
▁bikunzubile	-3728
▁kavulambedi	-3729
▁Ahashawelosha	-3730
po	-3731
bwe	-3732
emu	-3733
lei	-3734
mme	-3735
nsu	-3736
omi	-3737
▁Hô	-3738
hane	-3739
jiki	-3740
mike	-3741
riya	-3742
tiki	-3743
▁Alo	-3744
▁Mai	-3745
▁Mbi	-3746
▁Mei	-3747
▁Mun	-3748
▁Nem	-3749
▁mwi	-3750
▁nei	-3751
bange	-3752
boshe	-3753
kunyi	-3754
nyoka	-3755
nyoke	-3756
suike	-3757
tuale	-3758
▁Hese	-3759
▁Kole	-3760
▁Kuba	-3761
▁Maki	-3762
▁Mesh	-3763
▁Ulue	-3764
▁hebe	-3765
▁henu	-3766
▁kane	-3767
▁lubo	-3768
▁mûle	-3769
kidila	-3770
▁Abiya	-3771
▁Bungi	-3772
▁adiye	-3773
▁akamu	-3774
▁buabi	-3775
▁buvua	-3776
▁luesu	-3777
▁mbuku	-3778
▁nudie	-3779
ansunga	-3780
anukila	-3781
nguluke	-3782
peshaye	-3783
sangilu	-3784
tumibue	-3785
▁Ashere	-3786
▁Bakamu	-3787
▁Bakaya	-3788
▁Kabena	-3789
▁Yefune	-3790
▁balele	-3791
▁buonsu	-3792
▁dinudi	-3793
▁kukala	-3794
▁musesu	-3795
▁netuye	-3796
▁padibo	-3797
▁teleja	-3798
▁tukanu	-3799
▁Hakalua	-3800
▁bishale	-3801
▁bukunze	-3802
▁dishiha	-3803
▁grenade	-3804
▁kabuedi	-3805
▁kadiena	-3806
▁luakadi	-3807
▁milonda	-3808
▁neuvuwe	-3809
▁wakashi	-3810
▁wambila	-3811
▁Kanuenji	-3812
▁Kuenzabu	-3813
▁Lewitiki	-3814
▁Muanjelo	-3815
▁Tshituha	-3816
▁akambila	-3817
▁akenzela	-3818
▁batshidi	-3819
▁hanuenza	-3820
▁kampande	-3821
▁muomumue	-3822
▁neashihe	-3823
▁shemeshe	-3824
▁wakidika	-3825
▁Meshulama	-3826
▁Muprofete	-3827
▁kuikaleye	-3828
▁nenushihe	-3829
▁wakahunga	-3830
▁Hanuabuela	-3831
▁kuitabusha	-3832
▁kungambila	-3833
▁kunuambila	-3834
▁kunuenzela	-3835
▁nebatshine	-3836
▁nenjimishe	-3837
▁nuakahidia	-3838
▁tshihiminu	-3839
▁Ndelanganyi	-3840
▁bakatangila	-3841
▁bukunzubile	-3842
▁yakasongabo	-3843
▁Tunkanunuina	-3844
▁hanuashikama	-3845
▁kuluanganabo	-3846
▁wakamanyisha	-3847
▁anakunuambila	-3848
▁mulumbuluishi	-3849
SH	-3850
bê	-3851
ezê	-3852
▁Ei	-3853
▁Po	-3854
fina	-3855
teki	-3856
tupa	-3857
▁Amu	-3858
▁Ash	-3859
▁Iti	-3860
▁Nsu	-3861
▁apa	-3862
benge	-3863
hibua	-3864
kenya	-3865
konke	-3866
lengi	-3867
monya	-3868
shuwa	-3869
sunsu	-3870
▁Bobu	-3871
▁Dama	-3872
▁Kuya	-3873
▁Nebi	-3874
▁Nger	-3875
▁Numu	-3876
▁Tama	-3877
▁bala	-3878
▁bilu	-3879
▁bumu	-3880
▁momu	-3881
▁muye	-3882
bakila	-3883
jimine	-3884
kebela	-3885
lamina	-3886
leleye	-3887
mbishi	-3888
pikula	-3889
▁biudi	-3890
▁bûngi	-3891
▁kalua	-3892
▁kamue	-3893
▁munua	-3894
▁mutue	-3895
▁nengu	-3896
▁tuenu	-3897
handuka	-3898
koleshe	-3899
ouverne	-3900
▁Bahita	-3901
▁Edelei	-3902
▁Mbimpe	-3903
▁Misoko	-3904
▁Mukalu	-3905
▁Yolama	-3906
▁bahele	-3907
▁bunaka	-3908
▁buwaku	-3909
▁bweena	-3910
▁dikema	-3911
▁hadada	-3912
▁hatshi	-3913
▁kakamu	-3914
▁kunowa	-3915
▁kwenza	-3916
▁luanyi	-3917
▁lunene	-3918
▁matoba	-3919
▁muende	-3920
▁muminu	-3921
▁mupite	-3922
▁ndunga	-3923
▁nenudi	-3924
▁tufina	-3925
▁ushiha	-3926
kamakama	-3927
▁Yabesha	-3928
▁Yehoaza	-3929
▁bakenda	-3930
▁bamonyi	-3931
▁diakabi	-3932
▁hakafua	-3933
▁kamonya	-3934
▁kufuila	-3935
▁luhandu	-3936
▁lusongu	-3937
▁masanka	-3938
▁mukanku	-3939
▁mukunze	-3940
▁ndekelu	-3941
▁nebenze	-3942
▁nuhiana	-3943
▁tshinai	-3944
▁usabuka	-3945
▁wakumpa	-3946
▁Mutshima	-3947
▁Yeholama	-3948
▁bakafuma	-3949
▁bikaleye	-3950
▁binuhita	-3951
▁hakunvua	-3952
▁kujidila	-3953
▁kupatuka	-3954
▁minyinyi	-3955
▁tshifike	-3956
▁tshifulu	-3957
▁tshitanu	-3958
▁tuakulua	-3959
angatshidi	-3960
mbilangana	-3961
▁Ngershone	-3962
▁banyukula	-3963
▁kumukonka	-3964
▁kusangana	-3965
▁kusungila	-3966
▁mpukapuka	-3967
▁butuangaji	-3968
▁kulengesha	-3969
▁mukuambile	-3970
▁wakabafila	-3971
▁nenuhingane	-3972
▁wakakolesha	-3973
▁wakasangana	-3974
▁muakanulayeye	-3975
▁tshibuikidiji	-3976
▁wakalongolola	-3977
NG	-3978
▁J	-3979
diy	-3980
oma	-3981
que	-3982
▁Hu	-3983
dade	-3984
engi	-3985
fana	-3986
hesa	-3987
huda	-3988
nima	-3989
ongo	-3990
sega	-3991
seka	-3992
tahe	-3993
zaba	-3994
ûngi	-3995
▁Mmu	-3996
▁Naf	-3997
▁Sho	-3998
▁nui	-3999
▁wau	-4000
bande	-4001
bueja	-4002
kanji	-4003
mbaje	-4004
nange	-4005
shadi	-4006
shene	-4007
yooka	-4008
▁Gaza	-4009
▁Kasa	-4010
▁Laba	-4011
▁Mêyi	-4012
▁Pine	-4013
▁Selu	-4014
▁Tuye	-4015
▁bale	-4016
▁basu	-4017
▁bowa	-4018
▁boya	-4019
▁buku	-4020
▁enza	-4021
▁kalu	-4022
▁luku	-4023
▁mume	-4024
▁panu	-4025
▁tuya	-4026
anjile	-4027
diludi	-4028
diyane	-4029
lelele	-4030
mpeshe	-4031
nemeka	-4032
▁kauyi	-4033
▁kuabu	-4034
▁mmeku	-4035
▁mmena	-4036
▁nnuha	-4037
▁ntatu	-4038
▁sheba	-4039
▁tuvua	-4040
▁ufika	-4041
enzesha	-4042
jingulu	-4043
tengula	-4044
undisha	-4045
▁Bidimu	-4046
▁Ngombe	-4047
▁Pelese	-4048
▁Pisega	-4049
▁Sarayi	-4050
▁Sisela	-4051
▁Yeshua	-4052
▁bafike	-4053
▁balela	-4054
▁buteyi	-4055
▁hakamu	-4056
▁kubala	-4057
▁kunzuu	-4058
▁kusela	-4059
▁mbintu	-4060
▁mbualu	-4061
▁mudibu	-4062
▁muinda	-4063
▁munemu	-4064
▁nguaka	-4065
▁nukume	-4066
▁watshi	-4067
▁yatshi	-4068
enzeleye	-4069
kobolole	-4070
luhukabo	-4071
tshiteke	-4072
▁Kadesha	-4073
▁Mushete	-4074
▁dinfuen	-4075
▁dipembu	-4076
▁hakalua	-4077
▁kufunda	-4078
▁kuhanga	-4079
▁lubombo	-4080
▁lulengu	-4081
▁makunze	-4082
▁mpokolu	-4083
▁muisatu	-4084
▁nenulue	-4085
▁wakulua	-4086
ouverneur	-4087
tangilula	-4088
▁Damaseke	-4089
▁Diambedi	-4090
▁Hakadibo	-4091
▁Madiyane	-4092
▁Pinehasa	-4093
▁kabakamu	-4094
▁kuinyika	-4095
▁kuluisha	-4096
▁kumbusha	-4097
▁mamuende	-4098
▁neanuiha	-4099
▁nuakalua	-4100
▁tshitunu	-4101
▁wakatula	-4102
songakashi	-4103
tandangana	-4104
▁Shimeyone	-4105
▁Tshipangu	-4106
▁bituadije	-4107
▁kumushiha	-4108
▁nebambile	-4109
▁nkuambila	-4110
▁witabusha	-4111
muangalashe	-4112
▁buludiludi	-4113
▁diatshimue	-4114
▁wakatshina	-4115
▁Tuakanyenga	-4116
▁nebamushihe	-4117
▁baminisitila	-4118
▁dinfuenkenya	-4119
▁dilumbuluisha	-4120
▁muakanuambila	-4121
▁neanusankishe	-4122
LA	-4123
ré	-4124
ade	-4125
dai	-4126
vwa	-4127
▁Nâ	-4128
▁ee	-4129
anyì	-4130
bany	-4131
bina	-4132
dike	-4133
hala	-4134
holi	-4135
meke	-4136
rari	-4137
rewu	-4138
sasa	-4139
time	-4140
yowa	-4141
▁Neb	-4142
▁hau	-4143
▁mpe	-4144
▁nya	-4145
▁ung	-4146
abala	-4147
fueye	-4148
kenke	-4149
mbane	-4150
tonde	-4151
▁Ashê	-4152
▁Budi	-4153
▁Dane	-4154
▁Haza	-4155
▁Mufi	-4156
▁Waku	-4157
▁Yabo	-4158
▁bika	-4159
▁dibu	-4160
▁lusu	-4161
▁utua	-4162
beyatâ	-4163
fuanyi	-4164
hanana	-4165
ilaade	-4166
mekela	-4167
patuke	-4168
tekele	-4169
teleje	-4170
zakala	-4171
▁Ahiya	-4172
▁Naomi	-4173
▁Oholi	-4174
▁bosha	-4175
▁kuaku	-4176
▁luenu	-4177
▁luvua	-4178
▁mutan	-4179
▁nendi	-4180
▁nenye	-4181
▁neuba	-4182
▁nyota	-4183
▁tshin	-4184
▁tuaku	-4185
angisha	-4186
bashiha	-4187
hambuka	-4188
manyike	-4189
shihelu	-4190
tshishe	-4191
▁Bianza	-4192
▁Dikumi	-4193
▁Ebrewu	-4194
▁Eliaba	-4195
▁Hamata	-4196
▁Merari	-4197
▁Pelizi	-4198
▁Tshiji	-4199
▁Tshila	-4200
▁dibidi	-4201
▁diônso	-4202
▁hadiye	-4203
▁hahita	-4204
▁kahita	-4205
▁kakese	-4206
▁kukuna	-4207
▁masoso	-4208
▁misulu	-4209
▁nsenga	-4210
▁ubenga	-4211
▁wakabe	-4212
▁wakabu	-4213
lengeshe	-4214
longesha	-4215
sombuele	-4216
▁Adoniya	-4217
▁Ebeyatâ	-4218
▁Isakare	-4219
▁Kolesha	-4220
▁batuadi	-4221
▁bilongo	-4222
▁buikale	-4223
▁dilonda	-4224
▁dinanga	-4225
▁dishima	-4226
▁mashina	-4227
▁matempu	-4228
▁misumba	-4229
▁momumwe	-4230
▁mufundi	-4231
▁mulenge	-4232
▁nentume	-4233
▁tatuabu	-4234
▁tshiole	-4235
luanganyi	-4236
▁Mufikilu	-4237
▁Ngilaade	-4238
▁Tshibilu	-4239
▁bakabala	-4240
▁bakunvua	-4241
▁bibidilu	-4242
▁bienzedi	-4243
▁hakatshi	-4244
▁kabuluku	-4245
▁kubutula	-4246
▁kuenzabo	-4247
▁kulelaye	-4248
▁kunuhabu	-4249
▁kutekamu	-4250
▁nsombelu	-4251
▁ntshinyi	-4252
▁nutshine	-4253
▁nuvuluke	-4254
▁tshitaku	-4255
▁tuludiki	-4256
▁wakabaha	-4257
▁wakikala	-4258
▁wakimita	-4259
kukuambila	-4260
▁Tshilamba	-4261
▁bikumbane	-4262
▁kukumbana	-4263
▁makelenge	-4264
▁mfumuanyi	-4265
▁muakadiye	-4266
▁mutantshi	-4267
▁tshipwita	-4268
▁witabushe	-4269
▁kusakidila	-4270
shihianganyi	-4271
▁busambakaja	-4272
▁wakabashiha	-4273
▁kubamanyisha	-4274
▁kudilengesha	-4275
▁kumuandamuna	-4276
▁muakenzeleye	-4277
▁nenutumikile	-4278
▁wakungambila	-4279
▁anuakatangila	-4280
▁wakanusungula	-4281
TU	-4282
tô	-4283
zo	-4284
SHI	-4285
▁Do	-4286
▁Kâ	-4287
▁nz	-4288
bedi	-4289
bila	-4290
kaba	-4291
kiki	-4292
konk	-4293
muha	-4294
nama	-4295
nuka	-4296
onji	-4297
tali	-4298
tona	-4299
▁Kun	-4300
▁bih	-4301
▁dip	-4302
▁kup	-4303
▁nji	-4304
banza	-4305
dibua	-4306
fuidi	-4307
henda	-4308
heshe	-4309
hunge	-4310
kundu	-4311
kunvu	-4312
luile	-4313
ngula	-4314
shiki	-4315
▁Butu	-4316
▁Ishi	-4317
▁Masa	-4318
▁Mesu	-4319
▁Nuye	-4320
▁Tamâ	-4321
▁Tela	-4322
▁bile	-4323
▁kubo	-4324
▁kula	-4325
▁unua	-4326
badaya	-4327
fikila	-4328
luishe	-4329
semene	-4330
yukila	-4331
▁Bonsu	-4332
▁Diaka	-4333
▁Eyowa	-4334
▁Luehu	-4335
▁Nennu	-4336
▁Nyama	-4337
▁Omeli	-4338
▁adibu	-4339
▁butue	-4340
▁idibu	-4341
▁nfigi	-4342
▁nkutu	-4343
▁pandi	-4344
▁unvua	-4345
enjibue	-4346
mbeleja	-4347
▁Hilama	-4348
▁Mukuna	-4349
▁Nebata	-4350
▁Padiye	-4351
▁Palana	-4352
▁Pelasa	-4353
▁bafume	-4354
▁bakaha	-4355
▁bakuha	-4356
▁bamone	-4357
▁bipite	-4358
▁bwaalu	-4359
▁ilonda	-4360
▁kanemu	-4361
▁makese	-4362
▁mikumu	-4363
▁mitoke	-4364
▁mmumue	-4365
▁mpenga	-4366
▁muanyi	-4367
▁mufike	-4368
▁nakaku	-4369
▁panudi	-4370
▁tuhite	-4371
▁unanga	-4372
▁usomba	-4373
elangana	-4374
hingishe	-4375
luangane	-4376
sesuisha	-4377
tumbisha	-4378
▁Abishai	-4379
▁Hazaele	-4380
▁Wangate	-4381
▁atshidi	-4382
▁banuaka	-4383
▁batuala	-4384
▁bibombi	-4385
▁bisanji	-4386
▁bushuwa	-4387
▁divuaye	-4388
▁kabavua	-4389
▁kabiaka	-4390
▁kudiela	-4391
▁kusanka	-4392
▁mikumbi	-4393
▁muonshi	-4394
▁mushimi	-4395
▁nenkuhe	-4396
kitabusha	-4397
mbulwisha	-4398
tatshishi	-4399
▁Nuangate	-4400
▁bakadiye	-4401
▁bakamana	-4402
▁bakatuma	-4403
▁basalayi	-4404
▁komekela	-4405
▁luhehele	-4406
▁muakunyi	-4407
▁nebatshi	-4408
▁wakabaka	-4409
▁yakadibo	-4410
▁bakatamba	-4411
▁kusungula	-4412
▁makanyika	-4413
▁mubangila	-4414
▁mukokeshi	-4415
▁mulengele	-4416
▁musangane	-4417
▁nenuhiane	-4418
▁nenumanye	-4419
▁nenusanke	-4420
▁bakasabuka	-4421
▁basambombo	-4422
▁gouverneur	-4423
▁kumuangata	-4424
▁kusangisha	-4425
▁munuambile	-4426
▁nebamukume	-4427
▁wakamufila	-4428
▁wakamuteka	-4429
ngenyingenyi	-4430
▁dipangadika	-4431
▁Hakashikisha	-4432
▁bilumbulwilu	-4433
▁hakaluhukabo	-4434
▁tshishihuidi	-4435
▁wakaluangana	-4436
▁wakamuangata	-4437
▁wakanuambila	-4438
▁tshibangidilu	-4439
elu	-4440
end	-4441
ima	-4442
nka	-4443
▁DI	-4444
▁Ju	-4445
anze	-4446
baha	-4447
beji	-4448
esha	-4449
fiki	-4450
impe	-4451
kate	-4452
pota	-4453
sosa	-4454
wela	-4455
yabo	-4456
yire	-4457
▁Aki	-4458
▁Awu	-4459
▁Ebe	-4460
▁Ene	-4461
▁Mpu	-4462
▁Sam	-4463
▁bin	-4464
▁hua	-4465
▁inu	-4466
▁san	-4467
ebeja	-4468
ebele	-4469
hidie	-4470
kande	-4471
lombi	-4472
londi	-4473
lushi	-4474
mbuke	-4475
muinu	-4476
ngana	-4477
tuaku	-4478
▁Aloê	-4479
▁Hanu	-4480
▁Kayi	-4481
▁Kede	-4482
▁Kuyi	-4483
▁Luta	-4484
▁Nehe	-4485
▁Poti	-4486
▁Sane	-4487
▁Suko	-4488
▁alue	-4489
▁dibi	-4490
▁dimu	-4491
▁kufu	-4492
▁maha	-4493
▁neau	-4494
▁nebo	-4495
inyika	-4496
luishi	-4497
nguile	-4498
tofele	-4499
▁Amone	-4500
▁Diulu	-4501
▁Kishi	-4502
▁Uteke	-4503
▁banga	-4504
▁kumua	-4505
▁milan	-4506
▁mwabo	-4507
▁udila	-4508
kuluila	-4509
ledibua	-4510
songidi	-4511
timetre	-4512
▁Hemana	-4513
▁Kekate	-4514
▁Matana	-4515
▁Meliba	-4516
▁Nabala	-4517
▁Nadaba	-4518
▁Sihone	-4519
▁Sodome	-4520
▁Tamare	-4521
▁Tshidi	-4522
▁Wakamu	-4523
▁Zelede	-4524
▁bibaka	-4525
▁bikese	-4526
▁bisosa	-4527
▁bitalu	-4528
▁biusha	-4529
▁biwaka	-4530
▁biônso	-4531
▁buludi	-4532
▁dibaya	-4533
▁didiye	-4534
▁ditudi	-4535
▁lujima	-4536
▁makala	-4537
▁makiki	-4538
▁mikese	-4539
▁milume	-4540
▁muendu	-4541
▁munaka	-4542
▁mupete	-4543
▁netuku	-4544
▁nkumba	-4545
▁nuvudi	-4546
▁tshibo	-4547
▁tshiku	-4548
▁unvuai	-4549
angateye	-4550
hinganyi	-4551
hitshila	-4552
kenzesha	-4553
kumbasha	-4554
nyampala	-4555
sumbisha	-4556
tahulule	-4557
tuambila	-4558
▁Amaleke	-4559
▁Bakamba	-4560
▁Butshia	-4561
▁Elekana	-4562
▁Naftali	-4563
▁bakulua	-4564
▁bangate	-4565
▁biakanu	-4566
▁habuela	-4567
▁kudiabo	-4568
▁kudisha	-4569
▁kupesha	-4570
▁mashimi	-4571
▁mbuloba	-4572
▁mishimi	-4573
▁munange	-4574
▁nusomba	-4575
▁tatuebe	-4576
▁wakosha	-4577
▁wambile	-4578
buikidile	-4579
ihatshila	-4580
▁Elishama	-4581
▁Nehemiya	-4582
▁bakajuka	-4583
▁bikalabo	-4584
▁dihatuka	-4585
▁kubienza	-4586
▁nenubale	-4587
▁nuakamba	-4588
▁nuakulua	-4589
▁nudimuke	-4590
▁pashishe	-4591
▁wakakeba	-4592
nyangakaja	-4593
nyunguluke	-4594
▁Ahimeleke	-4595
▁Ahitofele	-4596
▁Kutshinyi	-4597
▁Munkatshi	-4598
▁batangile	-4599
▁biakadiye	-4600
▁bilengele	-4601
▁kubashiha	-4602
▁kutshinyi	-4603
▁kutuadija	-4604
▁nubuelemu	-4605
▁nuhingane	-4606
▁nukumbaje	-4607
▁tshishale	-4608
▁umuambile	-4609
▁Nenuenzele	-4610
▁bakabikila	-4611
▁baluangana	-4612
▁nenusabuke	-4613
▁santimetre	-4614
▁tshiendedi	-4615
▁ditampakane	-4616
▁kanutshinyi	-4617
▁kulumbulula	-4618
▁kutentekela	-4619
▁neanuenzele	-4620
▁nenushikame	-4621
▁nnumanyisha	-4622
▁wakadimusha	-4623
▁wakitabusha	-4624
▁baminyampala	-4625
▁nuahongolole	-4626
▁tshitelatela	-4627
▁bakalongolola	-4628
▁kudiangatshila	-4629
▁mushihianganyi	-4630
ibi	-4631
pua	-4632
tte	-4633
una	-4634
ûmu	-4635
▁ge	-4636
▁hi	-4637
▁la	-4638
▁yo	-4639
beye	-4640
bota	-4641
enai	-4642
hazi	-4643
kong	-4644
leje	-4645
mima	-4646
pula	-4647
rote	-4648
seya	-4649
wule	-4650
yime	-4651
zulu	-4652
▁Aya	-4653
▁Kin	-4654
▁bak	-4655
▁bij	-4656
▁hai	-4657
▁kaw	-4658
▁mmi	-4659
▁mum	-4660
▁nto	-4661
▁nuw	-4662
▁yau	-4663
bandu	-4664
banya	-4665
dibue	-4666
elete	-4667
kenka	-4668
kwata	-4669
liele	-4670
mpidi	-4671
nanga	-4672
ndila	-4673
nyane	-4674
nyina	-4675
▁Betu	-4676
▁Bila	-4677
▁Bile	-4678
▁Debî	-4679
▁Juka	-4680
▁Kana	-4681
▁Kila	-4682
▁Mali	-4683
▁Mbua	-4684
▁Mefi	-4685
▁Mvua	-4686
▁Naho	-4687
▁Sale	-4688
▁Sina	-4689
▁TSHI	-4690
▁Yehi	-4691
▁Zebu	-4692
▁anua	-4693
▁dîba	-4694
▁kune	-4695
▁nkwa	-4696
▁nutu	-4697
▁ulue	-4698
▁uudi	-4699
▁wowe	-4700
bakuba	-4701
filabo	-4702
nyangu	-4703
pitshi	-4704
tshipe	-4705
▁Agare	-4706
▁Amina	-4707
▁Geshû	-4708
▁Miaba	-4709
▁Neanu	-4710
▁Nsubu	-4711
▁Nuaku	-4712
▁Tuaka	-4713
▁Tuaku	-4714
▁Umuka	-4715
▁bakau	-4716
▁baudi	-4717
▁kandi	-4718
▁kuowa	-4719
▁litre	-4720
▁luidi	-4721
▁mualu	-4722
▁neatu	-4723
▁nenua	-4724
▁ngumu	-4725
▁nkita	-4726
▁pambe	-4727
▁udiku	-4728
▁ulama	-4729
▁uwaka	-4730
▁uyaya	-4731
bandila	-4732
bosheta	-4733
ledibue	-4734
mbikile	-4735
neemeka	-4736
▁Akisha	-4737
▁Kanuba	-4738
▁Mpingu	-4739
▁Seluya	-4740
▁Yotama	-4741
▁bakaku	-4742
▁bitadi	-4743
▁didibu	-4744
▁dikeji	-4745
▁kanene	-4746
▁kudibu	-4747
▁kukosa	-4748
▁kuyeye	-4749
▁lekela	-4750
▁malaba	-4751
▁mbashi	-4752
▁neyinu	-4753
▁tumelu	-4754
▁ushale	-4755
anangana	-4756
elangane	-4757
katshina	-4758
kishibue	-4759
kookeshi	-4760
kudimuka	-4761
mpulushi	-4762
shintaka	-4763
▁Izebele	-4764
▁Kushala	-4765
▁Misangu	-4766
▁balonda	-4767
▁bayanyi	-4768
▁dijimbu	-4769
▁ditamba	-4770
▁ditengu	-4771
▁kabeena	-4772
▁mupeshe	-4773
▁mushipe	-4774
▁nfiondo	-4775
▁nkutshi	-4776
▁nkwaasa	-4777
▁nushale	-4778
▁tshimpe	-4779
▁unakunu	-4780
▁wakasua	-4781
panduluke	-4782
shikameye	-4783
▁Heselona	-4784
▁Kuinyika	-4785
▁Shushana	-4786
▁Tshitupa	-4787
▁Zebulone	-4788
▁babadike	-4789
▁bakamuha	-4790
▁batshina	-4791
▁buludiki	-4792
▁dipatuka	-4793
▁kampanda	-4794
▁kunyanga	-4795
▁malamate	-4796
▁manyooka	-4797
▁mmulambu	-4798
▁nenukebe	-4799
▁nuenzela	-4800
▁tshibalu	-4801
▁tshipupu	-4802
▁utangile	-4803
▁wakahita	-4804
▁wakihata	-4805
▁wakunyua	-4806
jimishibue	-4807
▁Kunyemena	-4808
▁bamushipe	-4809
▁batangila	-4810
▁isambombu	-4811
▁mfumuende	-4812
▁mubambile	-4813
▁munakenza	-4814
▁nebamanye	-4815
▁newangate	-4816
▁nubuhiane	-4817
▁ungambila	-4818
sungansunga	-4819
▁Eleyashiba	-4820
▁bakalamata	-4821
▁bakalekela	-4822
▁kanusesuki	-4823
▁makubakuba	-4824
▁mungambile	-4825
▁munupatule	-4826
▁musombuedi	-4827
▁nebaluhuke	-4828
▁numuenzele	-4829
▁tshisabata	-4830
▁wakanuisha	-4831
▁Hakatshiabu	-4832
▁Kanutshinyi	-4833
▁Mefibosheta	-4834
▁akamuambila	-4835
▁bakasangana	-4836
▁buakabalabo	-4837
▁kunusungila	-4838
▁nebamumushe	-4839
tshintshimike	-4840
▁Biasanganabo	-4841
▁bawakahatula	-4842
▁nkutendekena	-4843
▁nnusengelela	-4844
▁bakatendelela	-4845
▁kanuluanganyi	-4846
▁kuyitendelela	-4847
▁muakamuambila	-4848
▁nenutendelele	-4849
▁masungulangana	-4850
▁muakabambileye	-4851
▁ditshintshimika	-4852
KA	-4853
ru	-4854
sô	-4855
té	-4856
▁s	-4857
cré	-4858
mai	-4859
nta	-4860
ran	-4861
▁As	-4862
▁BI	-4863
▁Is	-4864
▁On	-4865
▁Pu	-4866
biya	-4867
bola	-4868
bîdi	-4869
engu	-4870
jilu	-4871
kehe	-4872
leha	-4873
loka	-4874
rane	-4875
tete	-4876
wabo	-4877
yole	-4878
▁Ken	-4879
▁Uza	-4880
▁apu	-4881
buidi	-4882
bûngi	-4883
hasha	-4884
huole	-4885
kanza	-4886
kibue	-4887
lambi	-4888
luilu	-4889
ndile	-4890
ngidi	-4891
ngila	-4892
songo	-4893
taire	-4894
tandu	-4895
tempi	-4896
uluna	-4897
weela	-4898
▁Anyi	-4899
▁Nebo	-4900
▁Neti	-4901
▁Panu	-4902
▁Sela	-4903
▁Teka	-4904
▁Tola	-4905
▁buta	-4906
▁mubu	-4907
▁mûdi	-4908
▁nemb	-4909
▁nung	-4910
▁tunu	-4911
▁ushi	-4912
badile	-4913
butuka	-4914
enzeye	-4915
fikeye	-4916
fumina	-4917
hikudi	-4918
kosele	-4919
kunshi	-4920
lelabo	-4921
ngishe	-4922
salame	-4923
tukila	-4924
▁Elama	-4925
▁Esete	-4926
▁Esheb	-4927
▁Etshi	-4928
▁Kanua	-4929
▁Manoa	-4930
▁Nemba	-4931
▁Nudie	-4932
▁balua	-4933
▁buadi	-4934
▁diaku	-4935
▁edome	-4936
▁hatua	-4937
▁luehu	-4938
▁mmunu	-4939
▁muedi	-4940
▁nengi	-4941
▁njiwu	-4942
▁nkudi	-4943
▁panua	-4944
▁secré	-4945
endeshe	-4946
ikadilu	-4947
mpianyi	-4948
sangile	-4949
tabushe	-4950
tangala	-4951
yanguke	-4952
▁Ambila	-4953
▁Kabaka	-4954
▁Kayine	-4955
▁Kulela	-4956
▁Lemeke	-4957
▁Mahana	-4958
▁Nebuka	-4959
▁Netane	-4960
▁Nâmana	-4961
▁Seyire	-4962
▁Timena	-4963
▁Wakadi	-4964
▁angata	-4965
▁bafile	-4966
▁banayi	-4967
▁biafua	-4968
▁bikulu	-4969
▁buhote	-4970
▁dikoho	-4971
▁holona	-4972
▁kabamu	-4973
▁kukuma	-4974
▁kuonso	-4975
▁makaya	-4976
▁miendu	-4977
▁mihesa	-4978
▁mikale	-4979
▁mmuena	-4980
▁mumvue	-4981
▁mupuya	-4982
▁musele	-4983
▁mutumi	-4984
▁nutshi	-4985
▁nzenze	-4986
▁talala	-4987
▁tshika	-4988
▁tusulu	-4989
kengeshi	-4990
kumbashe	-4991
ngalasha	-4992
▁Butumbi	-4993
▁Ekelona	-4994
▁Shafana	-4995
▁bamanyi	-4996
▁bavuabu	-4997
▁bayandi	-4998
▁boshete	-4999
▁butamba	-5000
▁dileeja	-5001
▁dilongu	-5002
▁dishina	-5003
▁kanuaku	-5004
▁kushiya	-5005
▁muanebe	-5006
▁muikulu	-5007
▁muvuabu	-5008
▁nakamba	-5009
▁neateke	-5010
▁nuhuola	-5011
▁pambelu	-5012
▁tuakaya	-5013
▁tuikale	-5014
▁ulualua	-5015
▁wangate	-5016
banduluka	-5017
kuatshika	-5018
pianganyi	-5019
tangileye	-5020
vulangane	-5021
▁Baluishi	-5022
▁Binunvua	-5023
▁Nenukune	-5024
▁Netinima	-5025
▁Wakateka	-5026
▁anyemene	-5027
▁bakadimu	-5028
▁bidikoka	-5029
▁bisabata	-5030
▁biwikala	-5031
▁kunuteta	-5032
▁kupatula	-5033
▁mukajebe	-5034
▁muntumpu	-5035
▁munulaye	-5036
▁nuangate	-5037
▁tshidibu	-5038
▁wakavula	-5039
▁wakayila	-5040
angunvuila	-5041
buikidibue	-5042
hingishila	-5043
tentekashe	-5044
▁Mutumibue	-5045
▁Nenufunde	-5046
▁Yeshuluna	-5047
▁bakalenga	-5048
▁balaminyi	-5049
▁bitubuidi	-5050
▁kanushihi	-5051
▁kubuelela	-5052
▁neasabuke	-5053
▁nenushale	-5054
▁newambile	-5055
▁tshitamba	-5056
sankishibue	-5057
▁Nsongalume	-5058
▁bandambula	-5059
▁hanuabuela	-5060
▁kukudimuna	-5061
▁secrétaire	-5062
▁Bulongolodi	-5063
▁Tshisangilu	-5064
▁bakabambila	-5065
▁hanuasabuka	-5066
▁kanuakunvua	-5067
▁kukuatshisha	-5068
▁mukuatshishi	-5069
▁wakanuhikula	-5070
▁wakavudishila	-5071
▁neanuihatshile	-5072
▁tshibandabanda	-5073
hâ	-5074
mê	-5075
va	-5076
▁Ô	-5077
opa	-5078
êna	-5079
▁Af	-5080
▁Es	-5081
▁Nd	-5082
▁Tâ	-5083
▁Tî	-5084
▁Zê	-5085
▁cy	-5086
bâla	-5087
dutu	-5088
futu	-5089
goba	-5090
kinu	-5091
lobo	-5092
luba	-5093
mbwa	-5094
more	-5095
sami	-5096
suma	-5097
tamâ	-5098
tolo	-5099
tuba	-5100
uaye	-5101
uvua	-5102
zere	-5103
împe	-5104
▁Ege	-5105
▁Ngi	-5106
▁baa	-5107
▁ibi	-5108
▁kat	-5109
▁mpo	-5110
▁ndo	-5111
▁nze	-5112
angan	-5113
bidia	-5114
hongo	-5115
idike	-5116
kuila	-5117
kûsha	-5118
leshi	-5119
mbabo	-5120
mbaku	-5121
menga	-5122
ndame	-5123
ntuma	-5124
nyeme	-5125
nzulu	-5126
oshea	-5127
shane	-5128
shiyi	-5129
shure	-5130
sumbe	-5131
taanu	-5132
uluka	-5133
▁Haku	-5134
▁Holi	-5135
▁Isma	-5136
▁Kabi	-5137
▁Nile	-5138
▁Peka	-5139
▁Tele	-5140
▁Umpe	-5141
▁Umue	-5142
▁kute	-5143
▁mbia	-5144
▁mike	-5145
▁muwa	-5146
▁ngua	-5147
▁wakâ	-5148
ambaye	-5149
ambeye	-5150
angula	-5151
bahita	-5152
bihata	-5153
denesâ	-5154
dutuna	-5155
enzelu	-5156
hikule	-5157
jikija	-5158
ladika	-5159
maneye	-5160
manymu	-5161
nyange	-5162
nyooka	-5163
ondaha	-5164
peesha	-5165
pikule	-5166
sokome	-5167
zabada	-5168
zulula	-5169
ûmusha	-5170
▁Adama	-5171
▁Beena	-5172
▁Edene	-5173
▁Itamâ	-5174
▁Kushi	-5175
▁Ndiku	-5176
▁Nembu	-5177
▁Panua	-5178
▁benji	-5179
▁diudi	-5180
▁kosha	-5181
▁kunde	-5182
▁mbote	-5183
▁ndeke	-5184
▁neabu	-5185
▁neudi	-5186
▁unvue	-5187
▁wakab	-5188
▁Âgoba	-5189
anyishe	-5190
buelele	-5191
enekela	-5192
fundila	-5193
handika	-5194
hungila	-5195
kenkete	-5196
lombole	-5197
ngulule	-5198
tekesha	-5199
▁Halana	-5200
▁Hoshea	-5201
▁Kasada	-5202
▁Kuyabu	-5203
▁Mabaya	-5204
▁Mâseya	-5205
▁Nulame	-5206
▁Tobiya	-5207
▁Yaboka	-5208
▁akenza	-5209
▁akenze	-5210
▁bisaka	-5211
▁budibo	-5212
▁bumuke	-5213
▁dibala	-5214
▁diboku	-5215
▁ditshu	-5216
▁hanaka	-5217
▁kabadi	-5218
▁kabaki	-5219
▁kakayi	-5220
▁kuakua	-5221
▁kudima	-5222
▁kuenji	-5223
▁kufuka	-5224
▁kuyaye	-5225
▁lukinu	-5226
▁mponda	-5227
▁mufofo	-5228
▁mutudi	-5229
▁mutume	-5230
▁nakanu	-5231
▁nenuye	-5232
▁nuoshe	-5233
▁tuonso	-5234
▁tuonyi	-5235
jadikila	-5236
kanyanga	-5237
kudimuke	-5238
pandisha	-5239
vuluisha	-5240
▁Ahituba	-5241
▁Asahele	-5242
▁Bakashi	-5243
▁Bakuabo	-5244
▁Disanka	-5245
▁Egelona	-5246
▁Kabeena	-5247
▁Lakisha	-5248
▁Musambu	-5249
▁bakoshi	-5250
▁bashipe	-5251
▁bavuaye	-5252
▁bihungu	-5253
▁bitambe	-5254
▁buhidia	-5255
▁diakamu	-5256
▁kabuaka	-5257
▁kuakula	-5258
▁kuhuola	-5259
▁mashale	-5260
▁minyane	-5261
▁mionshi	-5262
▁mishiha	-5263
▁mmumane	-5264
▁mubanji	-5265
▁muitanu	-5266
▁mukuate	-5267
▁munuaka	-5268
▁mwikala	-5269
▁neatume	-5270
▁netufue	-5271
▁newenze	-5272
▁nkayenu	-5273
▁nubuele	-5274
▁nuwuaye	-5275
▁pavuabu	-5276
▁tshiala	-5277
▁tshimwe	-5278
▁tshipia	-5279
▁tshitua	-5280
▁tukanda	-5281
▁ujadika	-5282
mutangila	-5283
▁Hakamona	-5284
▁Ismayele	-5285
▁Kuambaye	-5286
▁Matanaya	-5287
▁Nuambile	-5288
▁Yedutuna	-5289
▁bajadike	-5290
▁bakamona	-5291
▁kuashila	-5292
▁kubuesha	-5293
▁kumubaka	-5294
▁kusemena	-5295
▁kûnyenga	-5296
▁mbalanda	-5297
▁muenzele	-5298
▁nenuambe	-5299
▁nkudimba	-5300
▁tshikutu	-5301
▁ubambile	-5302
▁ukokesha	-5303
▁wakitaba	-5304
jinguluila	-5305
▁Bakangata	-5306
▁Balombodi	-5307
▁Kabakanji	-5308
▁Kanukunyi	-5309
▁amanyishe	-5310
▁biafileye	-5311
▁bulengele	-5312
▁bumpianyi	-5313
▁dibuelela	-5314
▁dibuikila	-5315
▁kukolesha	-5316
▁matabisha	-5317
▁mukumbane	-5318
▁nebishale	-5319
▁tshikondu	-5320
▁tshiluilu	-5321
▁uluangana	-5322
▁Hanuahuola	-5323
▁Mahanayima	-5324
▁akatangila	-5325
▁bamuangala	-5326
▁bangabanga	-5327
▁binuahidia	-5328
▁bufikuluke	-5329
▁kubabutula	-5330
▁kukuambila	-5331
▁kukuenzela	-5332
▁kupitshila	-5333
▁neahingane	-5334
▁nengumushe	-5335
▁tshimanymu	-5336
▁wakasemena	-5337
▁watumikila	-5338
tangilangana	-5339
▁Nakatangila	-5340
▁balongolola	-5341
▁dilongolodi	-5342
▁hakashiheye	-5343
▁kubuikidila	-5344
▁kuvudishila	-5345
▁nakasungula	-5346
▁nebabuelemu	-5347
▁nebamukuate	-5348
▁nebashikame	-5349
▁tshishihelu	-5350
▁wakabebesha	-5351
▁Bakamuambila	-5352
▁Binuatangila	-5353
▁Nebukadenesâ	-5354
▁banukengesha	-5355
▁kanuangatshi	-5356
▁nuakatangila	-5357
▁nudisunguile	-5358
▁tshivulukilu	-5359
▁tuakatangila	-5360
▁wakabandisha	-5361
▁Kanubatshinyi	-5362
▁wakasangakena	-5363
▁kansungansunga	-5364
▁Tuakanyunguluka	-5365
LU	-5366
WA	-5367
or	-5368
sê	-5369
▁V	-5370
▁é	-5371
seb	-5372
vui	-5373
▁Mî	-5374
▁Ni	-5375
▁WA	-5376
eena	-5377
gona	-5378
hola	-5379
huwa	-5380
jana	-5381
kaji	-5382
kine	-5383
kuta	-5384
ladi	-5385
leme	-5386
lika	-5387
ludi	-5388
mele	-5389
nana	-5390
pate	-5391
pola	-5392
shua	-5393
tahi	-5394
tata	-5395
ulue	-5396
waye	-5397
yong	-5398
ànka	-5399
▁Aka	-5400
▁Hag	-5401
▁Idi	-5402
▁Ngu	-5403
▁Ore	-5404
▁bio	-5405
▁kuu	-5406
▁lon	-5407
▁nyi	-5408
anetu	-5409
binta	-5410
diate	-5411
dishe	-5412
elele	-5413
hanyi	-5414
kanka	-5415
kibua	-5416
sangi	-5417
shaya	-5418
sonso	-5419
sueye	-5420
twale	-5421
vului	-5422
vunda	-5423
▁Geba	-5424
▁Hawa	-5425
▁Kafe	-5426
▁Luai	-5427
▁Make	-5428
▁Mile	-5429
▁Nune	-5430
▁Selo	-5431
▁atua	-5432
▁bimu	-5433
▁buan	-5434
▁buau	-5435
▁haku	-5436
▁kaya	-5437
▁kêna	-5438
▁madi	-5439
▁muen	-5440
▁muyi	-5441
▁tumu	-5442
bulule	-5443
dadezê	-5444
enzeji	-5445
kambwa	-5446
kuteka	-5447
lamike	-5448
ludiki	-5449
mikila	-5450
nyangi	-5451
riyame	-5452
zakadi	-5453
▁Abiba	-5454
▁Ebele	-5455
▁Elone	-5456
▁Hasha	-5457
▁Nvita	-5458
▁Ulima	-5459
▁Yoele	-5460
▁anaka	-5461
▁biota	-5462
▁kutua	-5463
▁lonji	-5464
▁miadi	-5465
▁miaku	-5466
▁mputu	-5467
▁muabi	-5468
▁munga	-5469
▁mwaba	-5470
▁ngulu	-5471
▁ntole	-5472
▁nudia	-5473
▁nuele	-5474
▁nyuma	-5475
▁ukadi	-5476
▁unaku	-5477
badibue	-5478
bandilu	-5479
bishile	-5480
buelamu	-5481
endesha	-5482
fundabo	-5483
kenketa	-5484
landadi	-5485
muelela	-5486
shetshi	-5487
shilabo	-5488
sumbile	-5489
sungulu	-5490
sunsuka	-5491
tangana	-5492
tengule	-5493
▁Bionsu	-5494
▁Datana	-5495
▁Hadada	-5496
▁Hanoka	-5497
▁Midimu	-5498
▁Mikala	-5499
▁Mitshi	-5500
▁Mudimu	-5501
▁Nabota	-5502
▁Nebamu	-5503
▁Padana	-5504
▁Sukota	-5505
▁Uziele	-5506
▁Wakaya	-5507
▁Yefete	-5508
▁ambule	-5509
▁avuaye	-5510
▁badimu	-5511
▁budisu	-5512
▁bukola	-5513
▁bukubi	-5514
▁bumvue	-5515
▁difika	-5516
▁dimvua	-5517
▁ditoba	-5518
▁ditshi	-5519
▁hafika	-5520
▁kalala	-5521
▁kawena	-5522
▁kukama	-5523
▁kusuna	-5524
▁luende	-5525
▁mamane	-5526
▁mikaba	-5527
▁misoku	-5528
▁mufuke	-5529
▁mufume	-5530
▁mumvua	-5531
▁nangan	-5532
▁ndondo	-5533
▁neadie	-5534
▁nebaba	-5535
▁nebadi	-5536
▁nebaku	-5537
▁neulue	-5538
▁nsongu	-5539
▁numone	-5540
▁tshina	-5541
▁ubanda	-5542
▁uhanga	-5543
▁ulonda	-5544
▁unuaka	-5545
longeshe	-5546
ndambula	-5547
pitshila	-5548
▁Hakafua	-5549
▁Wakamba	-5550
▁Yeshaya	-5551
▁babanda	-5552
▁bafundi	-5553
▁bibumba	-5554
▁bijengu	-5555
▁bilengu	-5556
▁binuvua	-5557
▁bishala	-5558
▁buvuaye	-5559
▁dishale	-5560
▁hanuabu	-5561
▁kuimita	-5562
▁kusonga	-5563
▁luhanza	-5564
▁lusongo	-5565
▁mbabula	-5566
▁momumue	-5567
▁mpokolo	-5568
▁mukwabo	-5569
▁musumba	-5570
▁mutuadi	-5571
▁neatshi	-5572
▁nebafue	-5573
▁nenteke	-5574
▁netulue	-5575
▁nubuela	-5576
▁numanye	-5577
▁ubihata	-5578
ngunvuile	-5579
pingajile	-5580
sunguleye	-5581
tahuluile	-5582
▁Bikalaku	-5583
▁Hadadezê	-5584
▁Kulelaye	-5585
▁Miriyame	-5586
▁Nakuenza	-5587
▁Nebikale	-5588
▁Nenuambe	-5589
▁alambule	-5590
▁atangila	-5591
▁bakalala	-5592
▁biakenza	-5593
▁biendedi	-5594
▁bienzeka	-5595
▁dikunshi	-5596
▁hanuadia	-5597
▁kubutuka	-5598
▁kulekela	-5599
▁kunuisha	-5600
▁kuyukila	-5601
▁majalame	-5602
▁nakafila	-5603
▁nakateka	-5604
▁ndekeelu	-5605
▁nebafile	-5606
▁nebimane	-5607
▁tuenzele	-5608
▁ulombola	-5609
▁wakadiku	-5610
▁wakafuka	-5611
▁wakakuma	-5612
▁wakelela	-5613
fuanangane	-5614
hingishile	-5615
kanyengabo	-5616
luatshisha	-5617
musombesha	-5618
▁Aminadaba	-5619
▁Kubambila	-5620
▁Kushalaye	-5621
▁Mungalata	-5622
▁Oholibama	-5623
▁Panuikala	-5624
▁Tshikondu	-5625
▁bakahidia	-5626
▁bakakuata	-5627
▁bakasanka	-5628
▁bakokeshi	-5629
▁baledibue	-5630
▁banuyisha	-5631
▁dibendela	-5632
▁kakamanya	-5633
▁kuhingana	-5634
▁kumushipa	-5635
▁kunushiha	-5636
▁lusumuinu	-5637
▁mbuhianyi	-5638
▁mungalata	-5639
▁mutumibue	-5640
▁nealekele	-5641
▁netuikale	-5642
▁ngikadilu	-5643
▁nukumbane	-5644
▁nutangila	-5645
▁telebinta	-5646
▁tshibombi	-5647
▁tshivuaye	-5648
▁wakashila	-5649
▁wendakana	-5650
bandishibua	-5651
lumbuluishe	-5652
sangakeneye	-5653
▁Nusangishe	-5654
▁bakahatuka	-5655
▁hanuakalua	-5656
▁katshetshi	-5657
▁kumufuisha	-5658
▁kutumbisha	-5659
▁nangananga	-5660
▁nundambule	-5661
▁utendelela	-5662
▁wakabatuma	-5663
▁wakahatula	-5664
▁wakajadika	-5665
▁Ubavuluisha	-5666
▁akenzesheye	-5667
▁bakamukonka	-5668
▁dilongolola	-5669
▁ditangilula	-5670
▁kakitabusha	-5671
▁kumukuatshi	-5672
▁kushikamamu	-5673
▁kutombokela	-5674
▁nenkuambile	-5675
▁tshibandilu	-5676
▁wakamulonda	-5677
▁Nudisangishe	-5678
▁anuvudishile	-5679
▁bakasangisha	-5680
▁bilengulengu	-5681
▁kanubisokoki	-5682
▁kudisangisha	-5683
▁nebanutshine	-5684
▁bakakuatshila	-5685
▁banutatshisha	-5686
▁hanuakaluhuka	-5687
▁kunuihatshila	-5688
▁tshilembeleja	-5689
▁wakalumbulula	-5690
▁hanuashikamamu	-5691
▁mitangilangane	-5692
▁nuvudishangane	-5693
TA	-5694
fê	-5695
hô	-5696
it	-5697
wo	-5698
ENA	-5699
ala	-5700
ase	-5701
heu	-5702
mna	-5703
mua	-5704
odi	-5705
uja	-5706
êye	-5707
▁Mw	-5708
▁NE	-5709
▁da	-5710
▁eh	-5711
▁kâ	-5712
anya	-5713
dabe	-5714
endi	-5715
gada	-5716
hula	-5717
lasa	-5718
masa	-5719
mete	-5720
neye	-5721
pimu	-5722
polu	-5723
rede	-5724
riko	-5725
seki	-5726
toka	-5727
vuwa	-5728
yoyo	-5729
zola	-5730
▁Bas	-5731
▁Beô	-5732
▁Dib	-5733
▁Dut	-5734
▁Eta	-5735
▁Mba	-5736
▁blê	-5737
▁kwi	-5738
▁sua	-5739
▁tun	-5740
elelu	-5741
eleye	-5742
eneke	-5743
eyelu	-5744
gashi	-5745
kanga	-5746
manda	-5747
mbaja	-5748
mbola	-5749
menyi	-5750
oneka	-5751
pandi	-5752
sheti	-5753
shoma	-5754
suiki	-5755
tuile	-5756
tumme	-5757
wesha	-5758
▁Asha	-5759
▁Baku	-5760
▁Bani	-5761
▁Bita	-5762
▁Bule	-5763
▁Hôma	-5764
▁Mele	-5765
▁Neyi	-5766
▁Sede	-5767
▁Sile	-5768
▁Sufa	-5769
▁Tîsa	-5770
▁Yete	-5771
▁Yoke	-5772
▁afue	-5773
▁baha	-5774
▁bata	-5775
▁baya	-5776
▁biko	-5777
▁bûme	-5778
▁diha	-5779
▁gebê	-5780
▁itua	-5781
▁kabw	-5782
▁maja	-5783
▁mapi	-5784
▁menu	-5785
▁minu	-5786
▁patu	-5787
▁wake	-5788
▁yêye	-5789
▁ônso	-5790
ambudi	-5791
bakile	-5792
beenga	-5793
butuke	-5794
fwanyi	-5795
gayila	-5796
keleye	-5797
manabo	-5798
mbualu	-5799
nadaba	-5800
nuisha	-5801
oweshe	-5802
shibwa	-5803
tamare	-5804
tayima	-5805
▁Arane	-5806
▁Bafue	-5807
▁Banda	-5808
▁Besha	-5809
▁Biaku	-5810
▁Munyi	-5811
▁Salai	-5812
▁Tâshi	-5813
▁diala	-5814
▁dimwe	-5815
▁hafua	-5816
▁itudi	-5817
▁manga	-5818
▁mbena	-5819
▁mmutu	-5820
▁mpasu	-5821
▁nanyi	-5822
▁nembu	-5823
▁uteke	-5824
▁utela	-5825
▁wadia	-5826
▁yenda	-5827
▁Ônana	-5828
eyemena	-5829
kandike	-5830
longama	-5831
mpakana	-5832
mpatule	-5833
mûmusha	-5834
ngikala	-5835
ngunuka	-5836
pingaje	-5837
sombele	-5838
tshivua	-5839
▁Amalia	-5840
▁Ashela	-5841
▁Bunene	-5842
▁Dagona	-5843
▁Ebrone	-5844
▁Hanuna	-5845
▁Kabayi	-5846
▁Kafetô	-5847
▁Kumona	-5848
▁Kuvudi	-5849
▁Lekela	-5850
▁Semena	-5851
▁Tubadi	-5852
▁Wikale	-5853
▁Yeriko	-5854
▁Zimeli	-5855
▁ahueka	-5856
▁ataanu	-5857
▁badibu	-5858
▁bahote	-5859
▁bakanu	-5860
▁balama	-5861
▁bateka	-5862
▁bibelu	-5863
▁bitoke	-5864
▁bituhu	-5865
▁bunvua	-5866
▁dienza	-5867
▁dikosa	-5868
▁dikuba	-5869
▁hafila	-5870
▁hayeye	-5871
▁ikuama	-5872
▁kakula	-5873
▁kujuka	-5874
▁kuoshe	-5875
▁kuteke	-5876
▁luonso	-5877
▁maboku	-5878
▁mafuma	-5879
▁mikemu	-5880
▁muambi	-5881
▁mukata	-5882
▁mulela	-5883
▁muteke	-5884
▁nakumu	-5885
▁nakunu	-5886
▁nebahe	-5887
▁neudie	-5888
▁neufue	-5889
▁ntanta	-5890
▁tshima	-5891
▁ushala	-5892
▁wakung	-5893
andamuka	-5894
endakane	-5895
jidileye	-5896
kayabala	-5897
lumbulwi	-5898
sumbishe	-5899
tshimuna	-5900
tuenzela	-5901
▁Abilama	-5902
▁Ahimasa	-5903
▁Alualua	-5904
▁Atalaya	-5905
▁Bimenga	-5906
▁Dikenga	-5907
▁Efelona	-5908
▁Goshene	-5909
▁Hanuaya	-5910
▁Itamare	-5911
▁Kasumbu	-5912
▁Mueyelu	-5913
▁Mukanda	-5914
▁Musangu	-5915
▁Nahasha	-5916
▁Ngomore	-5917
▁Obadaya	-5918
▁Sileona	-5919
▁Tuakadi	-5920
▁Washeti	-5921
▁Yehiele	-5922
▁bakuate	-5923
▁basomba	-5924
▁bateeka	-5925
▁bilongu	-5926
▁boshila	-5927
▁bumuntu	-5928
▁dinyoka	-5929
▁ditumba	-5930
▁kanungu	-5931
▁kubanga	-5932
▁kufuaye	-5933
▁kumbula	-5934
▁kumudia	-5935
▁kupueka	-5936
▁kuvuala	-5937
▁malongu	-5938
▁matandu	-5939
▁milondo	-5940
▁mudibio	-5941
▁muluate	-5942
▁mushiki	-5943
▁ndisama	-5944
▁nebambe	-5945
▁nnganyi	-5946
▁nudiata	-5947
▁nênzele	-5948
▁tubanda	-5949
▁uyikila	-5950
▁wakampa	-5951
▁wakanua	-5952
▁wangata	-5953
dumbulula	-5954
hianyishe	-5955
jadikibue	-5956
muenekela	-5957
pitshimpi	-5958
shinguile	-5959
▁Bakateka	-5960
▁Buhianyi	-5961
▁Malakiya	-5962
▁Nengenze	-5963
▁Sedekiya	-5964
▁Wakafika	-5965
▁amufuile	-5966
▁buakenza	-5967
▁kambualu	-5968
▁kanuyidi	-5969
▁kasesuki	-5970
▁kaubuedi	-5971
▁kuenzabu	-5972
▁kuenzeka	-5973
▁kuenzeye	-5974
▁kufilabo	-5975
▁kuhikula	-5976
▁kunemeka	-5977
▁kupikula	-5978
▁kuvuluka	-5979
▁mukuandi	-5980
▁mupatule	-5981
▁nakuteka	-5982
▁nealombe	-5983
▁nengambe	-5984
▁nenuhete	-5985
▁nenukute	-5986
▁nshimete	-5987
▁tshimanu	-5988
▁tshiônso	-5989
▁unuhanga	-5990
▁wakabala	-5991
banyangana	-5992
manyangana	-5993
shikaminyi	-5994
tentekasha	-5995
tshiatshia	-5996
▁Abigayila	-5997
▁Bakashiha	-5998
▁Beshalele	-5999
▁Kanusuiki	-6000
▁Nebashihe	-6001
▁Tshipwita	-6002
▁Wakambila	-6003
▁bakumbaje	-6004
▁basungula	-6005
▁bunkambwa	-6006
▁diakimana	-6007
▁dineemeka	-6008
▁kabuikadi	-6009
▁kanukuata	-6010
▁kumupesha	-6011
▁kuntshina	-6012
▁kushihela	-6013
▁lukungulu	-6014
▁mukulumpa	-6015
▁neabafile	-6016
▁nebahiane	-6017
▁tshishima	-6018
▁unuambila	-6019
▁wakabenga	-6020
▁Hakafikabo	-6021
▁bakabihata	-6022
▁bakatshidi	-6023
▁banuambila	-6024
▁biakenzeye	-6025
▁bisambombu	-6026
▁dishintaka	-6027
▁kabwendela	-6028
▁kuitabushi	-6029
▁neanutumme	-6030
▁nebamukose	-6031
▁nenuangate	-6032
▁numuambile	-6033
▁nusakidile	-6034
▁tshiakadia	-6035
▁tshiakanua	-6036
▁tshidikoka	-6037
▁tshikaminu	-6038
▁tshinyangu	-6039
▁wakabateka	-6040
▁wakayiteka	-6041
▁havulangana	-6042
▁muakalayeye	-6043
▁nakatangila	-6044
▁nenubashihe	-6045
▁nsongakashi	-6046
▁tshilumbulu	-6047
▁wakabakonka	-6048
▁wakadihanda	-6049
▁wakahanduka	-6050
▁wakamuitaba	-6051
▁wakasangila	-6052
▁wakasungila	-6053
▁Tshilambuilu	-6054
▁balondangane	-6055
▁batandangana	-6056
▁bubuikidibue	-6057
▁dinyangakaja	-6058
▁kumukuatshia	-6059
▁kunusesuisha	-6060
▁muakafundabo	-6061
▁nenusombeshe	-6062
▁tshiakatamba	-6063
▁tshibutshilu	-6064
▁tshikamakama	-6065
▁tuakabashiha	-6066
▁wakadianjila	-6067
▁wakatuambila	-6068
▁kumubuikidila	-6069
▁muakangambila	-6070
▁muakanuenzela	-6071
▁tukusengelela	-6072
▁wakabakokesha	-6073
▁wakangunvuila	-6074
▁bakambilangana	-6075
▁bakanyunguluka	-6076
▁kabiakasunsuka	-6077
▁kanuakatangila	-6078
▁nenuashinguile	-6079
▁tshimpitshimpi	-6080
ND	-6081
tw	-6082
tù	-6083
▁F	-6084
ILA	-6085
ant	-6086
ema	-6087
epu	-6088
fra	-6089
lai	-6090
owi	-6091
pha	-6092
tro	-6093
êla	-6094
▁Am	-6095
▁Hû	-6096
▁Nê	-6097
▁Sh	-6098
▁Wi	-6099
▁Yâ	-6100
▁in	-6101
baba	-6102
dodo	-6103
fela	-6104
gela	-6105
haba	-6106
habo	-6107
male	-6108
menu	-6109
pepe	-6110
pole	-6111
rubi	-6112
somp	-6113
sope	-6114
tiya	-6115
toko	-6116
tota	-6117
▁Adu	-6118
▁Aze	-6119
▁Biu	-6120
▁Edi	-6121
▁Eme	-6122
▁Esi	-6123
▁Ido	-6124
▁Nte	-6125
▁Nun	-6126
▁ang	-6127
▁mmo	-6128
▁tsh	-6129
▁uwa	-6130
dinga	-6131
donda	-6132
hishe	-6133
ipata	-6134
kongu	-6135
mbuka	-6136
ndika	-6137
otshi	-6138
pingu	-6139
pueke	-6140
shilu	-6141
shima	-6142
shuba	-6143
twadi	-6144
woshe	-6145
▁Anji	-6146
▁Bake	-6147
▁Bitu	-6148
▁Hamo	-6149
▁Hasô	-6150
▁Hete	-6151
▁Ishe	-6152
▁Nahô	-6153
▁Palu	-6154
▁Sole	-6155
▁Tulo	-6156
▁Yise	-6157
▁Yoya	-6158
▁Zaba	-6159
▁audi	-6160
▁bilo	-6161
▁buai	-6162
▁bâna	-6163
▁haba	-6164
▁habi	-6165
▁kabo	-6166
▁kame	-6167
▁kuhu	-6168
▁kuta	-6169
▁mahu	-6170
▁mala	-6171
▁mung	-6172
▁muta	-6173
▁ndia	-6174
▁pala	-6175
▁teka	-6176
▁upia	-6177
▁wele	-6178
anguka	-6179
bikidi	-6180
enzeja	-6181
fuishe	-6182
kadile	-6183
lohama	-6184
ludika	-6185
lukile	-6186
lulame	-6187
mpesha	-6188
mukeye	-6189
ondoke	-6190
pianyi	-6191
yezere	-6192
yuwele	-6193
▁Abihu	-6194
▁Amola	-6195
▁Bikai	-6196
▁Dinda	-6197
▁Efere	-6198
▁Kudia	-6199
▁Mashi	-6200
▁Nenye	-6201
▁Neumu	-6202
▁Ngera	-6203
▁Shelo	-6204
▁Tuvua	-6205
▁Umuke	-6206
▁alama	-6207
▁awaka	-6208
▁badie	-6209
▁bianu	-6210
▁bihia	-6211
▁bikon	-6212
▁bitua	-6213
▁bunua	-6214
▁kuadi	-6215
▁mbang	-6216
▁mpetu	-6217
▁mpusu	-6218
▁ndota	-6219
▁neutu	-6220
▁nkadi	-6221
▁nkasa	-6222
▁nkata	-6223
▁ulela	-6224
▁upeta	-6225
▁wanyì	-6226
ambuila	-6227
bakuata	-6228
endenda	-6229
kangana	-6230
laminyi	-6231
mushile	-6232
shasete	-6233
tshipia	-6234
tuadila	-6235
tumibwa	-6236
▁Ambaku	-6237
▁Asheta	-6238
▁Bahika	-6239
▁Bileha	-6240
▁Debola	-6241
▁Esione	-6242
▁Esrone	-6243
▁Gehazi	-6244
▁Hanani	-6245
▁Kanulu	-6246
▁Kuteka	-6247
▁Kâmele	-6248
▁Mweena	-6249
▁Mîyama	-6250
▁Nahore	-6251
▁Nakaha	-6252
▁Padibu	-6253
▁Potifa	-6254
▁Saleka	-6255
▁Tumima	-6256
▁angate	-6257
▁bamona	-6258
▁banunu	-6259
▁beenyi	-6260
▁bidiku	-6261
▁bilama	-6262
▁binene	-6263
▁bivule	-6264
▁buneme	-6265
▁dianza	-6266
▁dieela	-6267
▁dihila	-6268
▁ditata	-6269
▁ditoke	-6270
▁kabaku	-6271
▁kakaya	-6272
▁kanufu	-6273
▁kubila	-6274
▁kukuba	-6275
▁kumuha	-6276
▁kutuha	-6277
▁lukutu	-6278
▁maminu	-6279
▁manseb	-6280
▁mapiku	-6281
▁mbishi	-6282
▁mikolo	-6283
▁mikolu	-6284
▁muishi	-6285
▁mukila	-6286
▁mutaha	-6287
▁mutuhe	-6288
▁nenuyi	-6289
▁ngamba	-6290
▁ngendu	-6291
▁ntshia	-6292
▁nuamba	-6293
▁nuambe	-6294
▁nulame	-6295
▁tshihe	-6296
▁tshihi	-6297
▁tshihu	-6298
▁tshimu	-6299
▁tuenze	-6300
▁utuala	-6301
▁wakalu	-6302
▁wimana	-6303
▁wimane	-6304
▁yalima	-6305
engelela	-6306
kalekela	-6307
luhukeye	-6308
nyingala	-6309
pitshile	-6310
shileshi	-6311
tshimune	-6312
wakuamba	-6313
▁Amihuda	-6314
▁Anatota	-6315
▁Bamfumu	-6316
▁Bashane	-6317
▁Bashiha	-6318
▁Bilamba	-6319
▁Kufunda	-6320
▁Nentume	-6321
▁Shutela	-6322
▁benzela	-6323
▁bidimen	-6324
▁bihanza	-6325
▁bilenga	-6326
▁bishima	-6327
▁buakaba	-6328
▁bukwabo	-6329
▁diakanu	-6330
▁dibanza	-6331
▁dibuela	-6332
▁dinuaka	-6333
▁kubidia	-6334
▁kuebeja	-6335
▁kuhaula	-6336
▁kuikale	-6337
▁kulambu	-6338
▁kunyema	-6339
▁kunyima	-6340
▁lubanza	-6341
▁lukuabu	-6342
▁lupingu	-6343
▁majinga	-6344
▁makwabo	-6345
▁mbikila	-6346
▁muhongo	-6347
▁munyeme	-6348
▁mushiye	-6349
▁musumbe	-6350
▁musunyi	-6351
▁ngakula	-6352
▁ngelelu	-6353
▁nuihata	-6354
▁nushala	-6355
▁tunungu	-6356
▁ujadike	-6357
▁umukina	-6358
▁unutuma	-6359
▁yakadia	-6360
hianyisha	-6361
hongolola	-6362
kanangane	-6363
matshishi	-6364
mbishibue	-6365
monangana	-6366
sungidila	-6367
sunguluja	-6368
tentekele	-6369
▁Ashedodo	-6370
▁Bakabika	-6371
▁Diakamue	-6372
▁Eshebone	-6373
▁Hakalela	-6374
▁Kuambila	-6375
▁Kujidila	-6376
▁Munyinyi	-6377
▁Nakunvua	-6378
▁Netanele	-6379
▁Ntempelo	-6380
▁Tâshishi	-6381
▁Yelubâla	-6382
▁akashika	-6383
▁asangane	-6384
▁bakadiku	-6385
▁bwenzeji	-6386
▁disalame	-6387
▁kabikadi	-6388
▁kabukulu	-6389
▁kabweena	-6390
▁kanuambi	-6391
▁kumufila	-6392
▁kusesuka	-6393
▁mmikenji	-6394
▁muangate	-6395
▁mujadike	-6396
▁mulotshi	-6397
▁nakanuha	-6398
▁nakunvua	-6399
▁nebolole	-6400
▁nebukute	-6401
▁nemmanye	-6402
▁nulamate	-6403
▁tshiyole	-6404
▁ubuelela	-6405
▁unuluila	-6406
▁wakataha	-6407
▁wakumana	-6408
kudimunabo	-6409
kumbashila	-6410
nyungulula	-6411
sangisheku	-6412
▁Abinadaba	-6413
▁Nebenzele	-6414
▁Tshisumbu	-6415
▁akobolole	-6416
▁bakahaula	-6417
▁batungula	-6418
▁bibambalu	-6419
▁bikengela	-6420
▁bilandadi	-6421
▁bulongama	-6422
▁dikolesha	-6423
▁dipangila	-6424
▁hatuakadi	-6425
▁kumuhidia	-6426
▁muledibue	-6427
▁munupeshe	-6428
▁mutangidi	-6429
▁neasukule	-6430
▁ntshidimu	-6431
▁numushipe	-6432
▁nusungule	-6433
▁tshibangu	-6434
▁tshibûngi	-6435
▁tshihungu	-6436
▁wakabisha	-6437
▁wakamuela	-6438
lumbulwishi	-6439
tentekelabo	-6440
tshunguluka	-6441
▁Atashasete	-6442
▁Kuinyikaye	-6443
▁Yehoyakima	-6444
▁Yehoyakina	-6445
▁avudishile	-6446
▁bababikila	-6447
▁bakatshina	-6448
▁bamuenzele	-6449
▁batumikila	-6450
▁biakashala	-6451
▁bikayabala	-6452
▁buwakutuha	-6453
▁dikamakama	-6454
▁kabakunvua	-6455
▁kanuenzedi	-6456
▁kuambilaye	-6457
▁kumuinyika	-6458
▁muakasueye	-6459
▁mutuambile	-6460
▁neabambile	-6461
▁neamiamine	-6462
▁neanuleshe	-6463
▁neashikame	-6464
▁nenubihate	-6465
▁nuditshiha	-6466
▁nuelangane	-6467
▁nuluangane	-6468
▁tshikololo	-6469
▁wakabiteka	-6470
▁wakatshidi	-6471
▁Batentekedi	-6472
▁bakashihabo	-6473
▁biakatulabo	-6474
▁kukumakasha	-6475
▁kumuakidila	-6476
▁kumufikisha	-6477
▁kutendekena	-6478
▁neadioweshe	-6479
▁neakudimune	-6480
lekelelangane	-6481
▁Binuasangana	-6482
▁bakadienzela	-6483
▁bandumbulula	-6484
▁biakakumbana	-6485
▁bileshileshi	-6486
▁dikuatshisha	-6487
▁hashikisheye	-6488
▁katuakashiya	-6489
▁kudisunguila	-6490
▁kunuhuekesha	-6491
▁kunyingalala	-6492
▁nudisangishe	-6493
▁unakunulesha	-6494
▁wakadishinda	-6495
▁wakahingisha	-6496
▁wakatuangana	-6497
▁bansongakashi	-6498
▁dinuakahatuka	-6499
▁wakamatshisha	-6500
▁kudikumbashila	-6501
▁mushipianganyi	-6502
▁tshilumbuluidi	-6503
▁tshipiatshipia	-6504
▁muakanuambileye	-6505
AM	-6506
AY	-6507
am	-6508
rè	-6509
yà	-6510
▁f	-6511
gne	-6512
mwa	-6513
rès	-6514
vue	-6515
▁BU	-6516
▁Hâ	-6517
▁mâ	-6518
▁ns	-6519
▁um	-6520
boba	-6521
butu	-6522
dayi	-6523
dima	-6524
hang	-6525
hema	-6526
iele	-6527
leku	-6528
lolu	-6529
oama	-6530
omba	-6531
roit	-6532
sosu	-6533
usha	-6534
widi	-6535
yeba	-6536
yoke	-6537
▁Bay	-6538
▁Ber	-6539
▁Biw	-6540
▁Oge	-6541
▁Ori	-6542
▁Sef	-6543
▁Seî	-6544
▁Ubi	-6545
▁awa	-6546
▁kwe	-6547
▁min	-6548
▁nsa	-6549
bamba	-6550
bueje	-6551
bunda	-6552
domba	-6553
ekela	-6554
haule	-6555
kunji	-6556
lambe	-6557
londu	-6558
miele	-6559
piane	-6560
shaka	-6561
shema	-6562
yanga	-6563
▁Bamu	-6564
▁Bele	-6565
▁Besa	-6566
▁Bilo	-6567
▁Bubi	-6568
▁Gezê	-6569
▁Hadi	-6570
▁Hagâ	-6571
▁Hele	-6572
▁Kame	-6573
▁Ketu	-6574
▁Kibe	-6575
▁Lumu	-6576
▁Meso	-6577
▁Metu	-6578
▁Nubi	-6579
▁Puwa	-6580
▁Sebo	-6581
▁atue	-6582
▁bahu	-6583
▁bakâ	-6584
▁bame	-6585
▁bapu	-6586
▁bawa	-6587
▁bung	-6588
▁difi	-6589
▁dîku	-6590
▁hobo	-6591
▁inua	-6592
▁kafu	-6593
▁kusa	-6594
▁luhu	-6595
▁lute	-6596
▁mapu	-6597
▁mund	-6598
▁musa	-6599
▁pabu	-6600
▁tubi	-6601
▁umua	-6602
▁wabi	-6603
▁watu	-6604
▁épha	-6605
balata	-6606
endele	-6607
fataya	-6608
fidila	-6609
fikile	-6610
fudilu	-6611
heliba	-6612
hoenai	-6613
jikije	-6614
kelabo	-6615
kidile	-6616
koliya	-6617
kumina	-6618
lekedi	-6619
leyele	-6620
lizima	-6621
sulula	-6622
teketa	-6623
zakale	-6624
▁Alama	-6625
▁Bivua	-6626
▁Elifa	-6627
▁Nendi	-6628
▁Njila	-6629
▁Nulue	-6630
▁Nuvua	-6631
▁Olola	-6632
▁Solea	-6633
▁Utuhe	-6634
▁Yiele	-6635
▁afile	-6636
▁akatu	-6637
▁bambi	-6638
▁bamue	-6639
▁biabi	-6640
▁biatu	-6641
▁biawu	-6642
▁grame	-6643
▁kadia	-6644
▁kunvu	-6645
▁miehu	-6646
▁mpelu	-6647
▁muiku	-6648
▁mwena	-6649
▁nendu	-6650
▁neubi	-6651
▁utula	-6652
banyine	-6653
benzela	-6654
handabo	-6655
hidiabo	-6656
jimishi	-6657
kidisha	-6658
kisheye	-6659
kuateye	-6660
lombeye	-6661
mangana	-6662
manyeye	-6663
manyina	-6664
mbikila	-6665
ngalale	-6666
nyuisha	-6667
onyibue	-6668
pangane	-6669
potamia	-6670
shihedi	-6671
tshinke	-6672
tulesha	-6673
undishe	-6674
▁Alauna	-6675
▁Batumi	-6676
▁Bialua	-6677
▁Buandi	-6678
▁Dilolo	-6679
▁Efrone	-6680
▁Halima	-6681
▁Hushai	-6682
▁Kakuyi	-6683
▁Kalebe	-6684
▁Kuhita	-6685
▁Limona	-6686
▁Mamale	-6687
▁Mileka	-6688
▁Miyama	-6689
▁Musoko	-6690
▁Nakuku	-6691
▁Ndondu	-6692
▁Nyunyi	-6693
▁Pelete	-6694
▁Selaya	-6695
▁Shimea	-6696
▁Ubande	-6697
▁Ulomba	-6698
▁Yelame	-6699
▁akamba	-6700
▁aleeja	-6701
▁alonda	-6702
▁avuabu	-6703
▁bakeba	-6704
▁bapite	-6705
▁basong	-6706
▁batudi	-6707
▁bibilu	-6708
▁bifulu	-6709
▁bikonu	-6710
▁bilaba	-6711
▁bilele	-6712
▁bimvua	-6713
▁bitabe	-6714
▁budibu	-6715
▁bumuka	-6716
▁bununu	-6717
▁butoke	-6718
▁difuka	-6719
▁difuku	-6720
▁dikese	-6721
▁dimane	-6722
▁disoso	-6723
▁hadibo	-6724
▁ibidia	-6725
▁ivuabu	-6726
▁kakole	-6727
▁katema	-6728
▁katufu	-6729
▁kuleja	-6730
▁kuneku	-6731
▁kunuha	-6732
▁kutaha	-6733
▁kutoka	-6734
▁ludimi	-6735
▁luimpe	-6736
▁lukole	-6737
▁makela	-6738
▁matshi	-6739
▁mibidi	-6740
▁mikonu	-6741
▁mionji	-6742
▁mipolu	-6743
▁mitotu	-6744
▁mmupie	-6745
▁mudima	-6746
▁mulayi	-6747
▁mulema	-6748
▁musoku	-6749
▁nakuku	-6750
▁ndimba	-6751
▁nebatu	-6752
▁ngenza	-6753
▁nkonga	-6754
▁nkumbi	-6755
▁nkunde	-6756
▁nshiha	-6757
▁palake	-6758
▁tshipe	-6759
▁tshite	-6760
▁tuishi	-6761
▁ulomba	-6762
andamuke	-6763
badilabo	-6764
enzelabo	-6765
handisha	-6766
idikisha	-6767
ilangana	-6768
luhukamu	-6769
mulekela	-6770
mwangala	-6771
tokoloke	-6772
tshidiye	-6773
tshiheye	-6774
▁Betuele	-6775
▁Gêshoma	-6776
▁Hashiha	-6777
▁Hingana	-6778
▁Kalongu	-6779
▁Katshia	-6780
▁Kedeshe	-6781
▁Milonda	-6782
▁Nashona	-6783
▁Nebafue	-6784
▁Ngerare	-6785
▁babenga	-6786
▁babuela	-6787
▁bahandi	-6788
▁bakanua	-6789
▁baluata	-6790
▁biatshi	-6791
▁biowelu	-6792
▁bukoshi	-6793
▁dimanyi	-6794
▁hafuabo	-6795
▁hatuaka	-6796
▁kaikadi	-6797
▁kakadia	-6798
▁kashipi	-6799
▁kuakane	-6800
▁kuluata	-6801
▁kunubue	-6802
▁kusuika	-6803
▁majimbu	-6804
▁mamanya	-6805
▁mialala	-6806
▁muatshi	-6807
▁mubangu	-6808
▁mubenge	-6809
▁munuvua	-6810
▁neyilue	-6811
▁ngikale	-6812
▁nkayabo	-6813
▁nshinga	-6814
▁nuikala	-6815
▁nutamba	-6816
▁tshiâla	-6817
kangatabo	-6818
kenzakana	-6819
lumbulule	-6820
mbuluishe	-6821
muenekele	-6822
songakaji	-6823
tombokele	-6824
tshihisha	-6825
▁Bakafila	-6826
▁Bersheba	-6827
▁Buhikudi	-6828
▁Eshekola	-6829
▁Gelizima	-6830
▁Kakunyua	-6831
▁Kinelete	-6832
▁Kumonaye	-6833
▁Makelela	-6834
▁Menahema	-6835
▁Nebateke	-6836
▁Nenulele	-6837
▁Ngoshene	-6838
▁Nutshine	-6839
▁Potifare	-6840
▁Tshijila	-6841
▁Yelemiya	-6842
▁Yohanana	-6843
▁akenzabo	-6844
▁apingane	-6845
▁ashikame	-6846
▁bakatshi	-6847
▁bakuenza	-6848
▁buakamba	-6849
▁bupianyi	-6850
▁hafileye	-6851
▁hakumuka	-6852
▁kadieena	-6853
▁kufuisha	-6854
▁kuimbabo	-6855
▁kulamata	-6856
▁kuluhuka	-6857
▁kusakidi	-6858
▁kutufila	-6859
▁kutuluka	-6860
▁kutumina	-6861
▁mmomumue	-6862
▁muakafua	-6863
▁muambudi	-6864
▁mukuende	-6865
▁nengenze	-6866
▁nenukune	-6867
▁nnupesha	-6868
▁nubueshe	-6869
▁nulekele	-6870
▁nusesuka	-6871
▁pikalaye	-6872
▁tshienza	-6873
▁tshimana	-6874
▁tshipite	-6875
▁ubambila	-6876
▁umukuata	-6877
▁umukuate	-6878
▁umushihe	-6879
kaluangana	-6880
londangana	-6881
lumbuluila	-6882
nyingalala	-6883
sangishabo	-6884
sangishile	-6885
tshinyisha	-6886
▁Bukelenge	-6887
▁Metushela	-6888
▁Nakangata	-6889
▁Panuafika	-6890
▁Shefataya	-6891
▁Ungambile	-6892
▁bakafunda	-6893
▁bakahueka	-6894
▁basangane	-6895
▁basangile	-6896
▁bashihela	-6897
▁biakaboba	-6898
▁buakadiye	-6899
▁budisuile	-6900
▁buenjibue	-6901
▁diakadibo	-6902
▁dikanyika	-6903
▁ditangila	-6904
▁hakafuabo	-6905
▁hatshiabu	-6906
▁kaluatshi	-6907
▁katshiena	-6908
▁katuakabi	-6909
▁kubalesha	-6910
▁kuikalabo	-6911
▁kumiamina	-6912
▁kunfudilu	-6913
▁kutomboka	-6914
▁kwanyisha	-6915
▁mafundahu	-6916
▁masungula	-6917
▁mbanganyi	-6918
▁mutangile	-6919
▁nebabidie	-6920
▁nebangate	-6921
▁nedishale	-6922
▁nembikile	-6923
▁teletwale	-6924
▁tshiotshi	-6925
▁tuakuenza	-6926
▁upitshila	-6927
▁wakananga	-6928
▁wakashiya	-6929
▁wakasuika	-6930
▁wakuntuma	-6931
muangalasha	-6932
▁Ashetalota	-6933
▁Batuangaji	-6934
▁Batumikidi	-6935
▁Nundambule	-6936
▁Saneheliba	-6937
▁bakasemena	-6938
▁bamuambila	-6939
▁banyanguke	-6940
▁basangisha	-6941
▁batumikile	-6942
▁biakenzabo	-6943
▁bilambuilu	-6944
▁diakambeye	-6945
▁hakunvuabo	-6946
▁kubajidila	-6947
▁muakenzabo	-6948
▁neitabushe	-6949
▁nenubakume	-6950
▁nenuenzele	-6951
▁neutangile	-6952
▁nuditshihe	-6953
▁numutshine	-6954
▁tshikudika	-6955
▁tuakahaula	-6956
▁wakafuisha	-6957
▁wakanyanga	-6958
▁wakumukaku	-6959
▁Mesopotamia	-6960
▁Nsongakashi	-6961
▁Tshiakabidi	-6962
▁babalombola	-6963
▁bakamulonda	-6964
▁hanuabihata	-6965
▁kubilambula	-6966
▁kudiundisha	-6967
▁kumuenekela	-6968
▁kutunyuisha	-6969
▁mipanduluke	-6970
▁mukuatshiki	-6971
▁nakunuelela	-6972
▁neasakidile	-6973
▁nebavudishe	-6974
▁wakamukuata	-6975
▁wakamûmusha	-6976
▁wakendakana	-6977
▁yakamueneka	-6978
▁Kanukengeshi	-6979
▁bakahitshila	-6980
▁bakashihibua	-6981
▁biangatshile	-6982
▁bunakabalaya	-6983
▁dishintakaja	-6984
▁kukudimuneye	-6985
▁lutandatanda	-6986
▁nenusakidile	-6987
▁tshiakakuata	-6988
▁wakashikisha	-6989
▁Kanutatshishi	-6990
▁Tshitendelelu	-6991
▁bakatentekela	-6992
▁biakadiundamu	-6993
▁bifuanyikishi	-6994
▁hanualuhukamu	-6995
▁kanudisongidi	-6996
▁kunubuikidila	-6997
▁nenukuatshile	-6998
▁wakabanduluka	-6999
▁wakakuatshila	-7000
▁wakamukukuila	-7001
▁wakashikamamu	-7002
▁wakatendelela	-7003
▁Masungulangana	-7004
▁bakamubadilabo	-7005
▁binakanuambila	-7006
▁kunubueshilabo	-7007
▁mihingishilula	-7008
▁neanukuatshile	-7009
EL	-7010
ZR	-7011
au	-7012
bô	-7013
dî	-7014
ie	-7015
kê	-7016
uc	-7017
àb	-7018
ELE	-7019
amù	-7020
apu	-7021
bai	-7022
can	-7023
don	-7024
hat	-7025
lau	-7026
lka	-7027
nis	-7028
ode	-7029
otu	-7030
oue	-7031
ppe	-7032
ron	-7033
sbe	-7034
slu	-7035
son	-7036
ypa	-7037
▁Dé	-7038
▁Gu	-7039
▁Gî	-7040
▁Lâ	-7041
▁bô	-7042
▁le	-7043
▁mê	-7044
▁nû	-7045
▁pi	-7046
▁sa	-7047
ZRAY	-7048
balu	-7049
beng	-7050
beyi	-7051
bima	-7052
dala	-7053
hase	-7054
huma	-7055
ilai	-7056
jula	-7057
koso	-7058
lita	-7059
nema	-7060
nyua	-7061
ormo	-7062
pana	-7063
près	-7064
pule	-7065
rime	-7066
rizi	-7067
sema	-7068
sese	-7069
sâtu	-7070
tabe	-7071
tawa	-7072
teme	-7073
zele	-7074
▁Adâ	-7075
▁Afe	-7076
▁Ati	-7077
▁Awa	-7078
▁Eva	-7079
▁Ivi	-7080
▁Lib	-7081
▁Muo	-7082
▁Nui	-7083
▁Sen	-7084
▁Soâ	-7085
▁Taa	-7086
▁Uli	-7087
▁bab	-7088
▁cho	-7089
▁dis	-7090
▁eee	-7091
▁ele	-7092
▁ngi	-7093
▁Âpa	-7094
adile	-7095
ambre	-7096
bengi	-7097
buuja	-7098
diabo	-7099
diata	-7100
diele	-7101
dombe	-7102
ekele	-7103
fraie	-7104
gogne	-7105
hande	-7106
hinda	-7107
jinge	-7108
kanya	-7109
lican	-7110
mande	-7111
mpila	-7112
ngule	-7113
nkila	-7114
paapu	-7115
shake	-7116
sunyi	-7117
▁BENA	-7118
▁BIDI	-7119
▁Babo	-7120
▁Bina	-7121
▁Buka	-7122
▁Buki	-7123
▁Daya	-7124
▁Dita	-7125
▁Enze	-7126
▁Haga	-7127
▁Hala	-7128
▁Kada	-7129
▁Kutu	-7130
▁Luze	-7131
▁Mezo	-7132
▁Oten	-7133
▁Pagi	-7134
▁Peda	-7135
▁Refa	-7136
▁Siba	-7137
▁Sibe	-7138
▁Soha	-7139
▁Untu	-7140
▁Yaka	-7141
▁Zera	-7142
▁Zifa	-7143
▁Zêba	-7144
▁biai	-7145
▁biku	-7146
▁bulo	-7147
▁chat	-7148
▁diau	-7149
▁enda	-7150
▁enze	-7151
▁gypa	-7152
▁ibis	-7153
▁juka	-7154
▁kump	-7155
▁kuse	-7156
▁mabe	-7157
▁maji	-7158
▁male	-7159
▁meba	-7160
▁mita	-7161
▁moue	-7162
▁mâyi	-7163
▁node	-7164
▁ntua	-7165
▁tush	-7166
▁wamu	-7167
ankulu	-7168
badila	-7169
bweela	-7170
donase	-7171
fumeye	-7172
hetshi	-7173
hetula	-7174
jimija	-7175
kelaga	-7176
luhuki	-7177
nshila	-7178
rubine	-7179
tabala	-7180
tekeye	-7181
temena	-7182
toloka	-7183
tulula	-7184
uakaya	-7185
yifile	-7186
▁Adaya	-7187
▁Anoke	-7188
▁Bandi	-7189
▁Benyi	-7190
▁Binui	-7191
▁Buela	-7192
▁Buowa	-7193
▁Ebere	-7194
▁Ehuda	-7195
▁Elata	-7196
▁Eleye	-7197
▁IZRAY	-7198
▁Kuaku	-7199
▁Kuibi	-7200
▁Maalu	-7201
▁Milka	-7202
▁Mishi	-7203
▁Mwâna	-7204
▁Nemmu	-7205
▁Nzubu	-7206
▁Paudi	-7207
▁Shala	-7208
▁Shede	-7209
▁Shele	-7210
▁Yetro	-7211
▁akama	-7212
▁bakun	-7213
▁bukwa	-7214
▁bumwe	-7215
▁bîmpe	-7216
▁cormo	-7217
▁diabi	-7218
▁dinai	-7219
▁huant	-7220
▁huppe	-7221
▁kuudi	-7222
▁mbedi	-7223
▁miela	-7224
▁miepu	-7225
▁muela	-7226
▁mulue	-7227
▁nentu	-7228
▁nuase	-7229
▁nyong	-7230
▁uleja	-7231
▁usama	-7232
▁utema	-7233
bandile	-7234
bangile	-7235
bueleye	-7236
enjibua	-7237
hadishe	-7238
ibakila	-7239
kalesha	-7240
lengeja	-7241
lengulu	-7242
lombele	-7243
mbilabo	-7244
mueneke	-7245
shadila	-7246
shihele	-7247
shikika	-7248
temesha	-7249
▁Aflika	-7250
▁Amisha	-7251
▁Amrame	-7252
▁Atiopa	-7253
▁Bafika	-7254
▁Bakaha	-7255
▁Bakela	-7256
▁Balami	-7257
▁Datane	-7258
▁Dibaya	-7259
▁Eliezê	-7260
▁Hakamu	-7261
▁Hanaka	-7262
▁Hulama	-7263
▁Kayena	-7264
▁Kenana	-7265
▁Kuyaye	-7266
▁Lekaba	-7267
▁Mahala	-7268
▁Makeda	-7269
▁Mambre	-7270
▁Mamuma	-7271
▁Mianda	-7272
▁Moleke	-7273
▁Nadabe	-7274
▁Nebanu	-7275
▁Nenuba	-7276
▁Nenudi	-7277
▁Nufile	-7278
▁Numuke	-7279
▁Nuoshe	-7280
▁Yafete	-7281
▁Yebusa	-7282
▁Yetelo	-7283
▁Yisehâ	-7284
▁Zabada	-7285
▁akalua	-7286
▁amande	-7287
▁ambile	-7288
▁ashala	-7289
▁bakula	-7290
▁banowi	-7291
▁bansue	-7292
▁bapete	-7293
▁bibawu	-7294
▁bibole	-7295
▁bikasu	-7296
▁bimanu	-7297
▁bisasa	-7298
▁cyprès	-7299
▁diambu	-7300
▁dianze	-7301
▁didiku	-7302
▁dijika	-7303
▁hatawa	-7304
▁hatula	-7305
▁inuaku	-7306
▁kabutu	-7307
▁kenaku	-7308
▁kufuta	-7309
▁kukola	-7310
▁kukole	-7311
▁kulaya	-7312
▁kumina	-7313
▁makopu	-7314
▁mamuen	-7315
▁masosu	-7316
▁matata	-7317
▁mbenze	-7318
▁mikala	-7319
▁mikoso	-7320
▁minoko	-7321
▁mmuana	-7322
▁mpesha	-7323
▁mufuba	-7324
▁mumany	-7325
▁munvue	-7326
▁muuvua	-7327
▁mwaabo	-7328
▁nakaha	-7329
▁nakela	-7330
▁nebase	-7331
▁nuenda	-7332
▁nunvue	-7333
▁nunyua	-7334
▁tubadi	-7335
▁umusha	-7336
▁umushe	-7337
▁usanke	-7338
▁wakunu	-7339
▁witaba	-7340
▁wolola	-7341
enzekela	-7342
hingasha	-7343
kumbanyi	-7344
kunvueye	-7345
kunvuila	-7346
leleleye	-7347
nyanguke	-7348
potamiya	-7349
sanganyi	-7350
sesuishe	-7351
shihibue	-7352
shindame	-7353
sokolola	-7354
tangisha	-7355
tekemena	-7356
▁Abalima	-7357
▁Abirame	-7358
▁Amalama	-7359
▁Ayalona	-7360
▁Bamonyi	-7361
▁Efelata	-7362
▁Gîgashi	-7363
▁Hananya	-7364
▁Kubuela	-7365
▁Kumpala	-7366
▁Nebenze	-7367
▁Tshintu	-7368
▁Udimuke	-7369
▁Wakalua	-7370
▁ahatuka	-7371
▁babenge	-7372
▁bahuola	-7373
▁bakimba	-7374
▁bakishi	-7375
▁bangata	-7376
▁banyema	-7377
▁basunyi	-7378
▁bihendu	-7379
▁binuaka	-7380
▁cigogne	-7381
▁dibungi	-7382
▁divuabu	-7383
▁kanyama	-7384
▁katuaku	-7385
▁kuelamu	-7386
▁kulenga	-7387
▁kulesha	-7388
▁kulonde	-7389
▁kuolola	-7390
▁kutuuta	-7391
▁lukongu	-7392
▁lusenga	-7393
▁mabamba	-7394
▁mabanza	-7395
▁madiotu	-7396
▁masonga	-7397
▁mikwabo	-7398
▁mouette	-7399
▁muhidie	-7400
▁muhunge	-7401
▁neabake	-7402
▁neanuhe	-7403
▁nebanyi	-7404
▁nemmuhe	-7405
▁neubale	-7406
▁neuteke	-7407
▁numushe	-7408
▁orfraie	-7409
▁tatuenu	-7410
▁tshiuja	-7411
▁tuminyi	-7412
▁tushale	-7413
▁upatuka	-7414
▁yakalua	-7415
ananukila	-7416
buashibua	-7417
handuludi	-7418
handuluka	-7419
handulula	-7420
ondahibua	-7421
pingajila	-7422
yungulula	-7423
▁Abinoama	-7424
▁Belekiya	-7425
▁Besalele	-7426
▁Binuamba	-7427
▁Bituenza	-7428
▁Ditalala	-7429
▁IZRAYELE	-7430
▁Kedemota	-7431
▁Kibelota	-7432
▁Kuangata	-7433
▁Kuenzaye	-7434
▁Majalame	-7435
▁Mitshima	-7436
▁Muananyi	-7437
▁Mushindu	-7438
▁Netuenze	-7439
▁Refayime	-7440
▁Salemuna	-7441
▁Sikelaga	-7442
▁Tatuende	-7443
▁Yelamele	-7444
▁Yelohama	-7445
▁bakakeba	-7446
▁bakatula	-7447
▁balekele	-7448
▁banganyi	-7449
▁cormoran	-7450
▁dinyooka	-7451
▁himaneye	-7452
▁kakunyua	-7453
▁kuebesha	-7454
▁kuendamu	-7455
▁kukunamu	-7456
▁kulelela	-7457
▁kumonaye	-7458
▁kutshipa	-7459
▁kwangata	-7460
▁malelela	-7461
▁mumpeshe	-7462
▁munyenge	-7463
▁neabuele	-7464
▁nebafute	-7465
▁nebateke	-7466
▁nenubike	-7467
▁ngalesha	-7468
▁ngenzelu	-7469
▁nkayenda	-7470
▁nubiteke	-7471
▁pikalabo	-7472
▁telejayi	-7473
▁tshibîdi	-7474
▁tshikadi	-7475
▁tshipita	-7476
▁tusesuka	-7477
▁uhingane	-7478
▁usangana	-7479
▁usungule	-7480
▁wakabela	-7481
▁wakakosa	-7482
bengangana	-7483
hingisheye	-7484
koleshibua	-7485
konkangana	-7486
konkangane	-7487
kundukundu	-7488
lambishila	-7489
lumbuluile	-7490
▁Bankambua	-7491
▁Bashikama	-7492
▁Bingikala	-7493
▁Biwahidia	-7494
▁Bukalenge	-7495
▁Dayawesha	-7496
▁Hashabeya	-7497
▁Kakuakadi	-7498
▁Labashake	-7499
▁Nenvuishe	-7500
▁Shimelona	-7501
▁Wakashiha	-7502
▁akudimuke	-7503
▁bakabanga	-7504
▁balambule	-7505
▁belangana	-7506
▁dibendele	-7507
▁dihungila	-7508
▁ditabuuja	-7509
▁hakaluabo	-7510
▁kabakenza	-7511
▁kakambila	-7512
▁kanulengi	-7513
▁kubakonka	-7514
▁kubangila	-7515
▁kujimisha	-7516
▁kukuatshi	-7517
▁kukushiha	-7518
▁kumukuata	-7519
▁kumusamba	-7520
▁mubuelele	-7521
▁muonyibue	-7522
▁nakahueka	-7523
▁neamufute	-7524
▁nebalonde	-7525
▁nebanyeme	-7526
▁nempatule	-7527
▁nenubuele	-7528
▁nenutambe	-7529
▁netushale	-7530
▁nuakadila	-7531
▁nubambile	-7532
▁nushikama	-7533
▁nutangile	-7534
▁panuikala	-7535
▁tshiakaya	-7536
▁tshibuiku	-7537
▁tshibunda	-7538
▁tshipaapu	-7539
▁tshisanji	-7540
▁tshishala	-7541
▁tshivuabu	-7542
▁tshivuadi	-7543
▁ukulekela	-7544
▁usangisha	-7545
▁wakasomba	-7546
ambilangana	-7547
sangishibua	-7548
tendelelabo	-7549
▁Bakerubine	-7550
▁Binuahidia	-7551
▁Bukookeshi	-7552
▁Numanyishe	-7553
▁Sanebalata	-7554
▁bakasesuka	-7555
▁bamessager	-7556
▁bangenzele	-7557
▁basambombu	-7558
▁batekemena	-7559
▁biahidiabo	-7560
▁biakakuama	-7561
▁bifikuluke	-7562
▁binuayenza	-7563
▁dikebulula	-7564
▁dinuakuata	-7565
▁hakafikeye	-7566
▁kakasesuka	-7567
▁kamuenzela	-7568
▁kanudionyi	-7569
▁kubafikila	-7570
▁kuimanyika	-7571
▁kulambuila	-7572
▁kusombuela	-7573
▁kusumbisha	-7574
▁mbakelenge	-7575
▁minisitila	-7576
▁muakenzela	-7577
▁mudianjile	-7578
▁muditshihe	-7579
▁mukuenzele	-7580
▁munuenzele	-7581
▁mutupatule	-7582
▁neamushihe	-7583
▁neanumushe	-7584
▁neanyemene	-7585
▁nembashihe	-7586
▁nempingane	-7587
▁nenuoshile	-7588
▁nuenzelamu	-7589
▁usangakena	-7590
▁wakabifila	-7591
▁wakabutula	-7592
▁wakajidila	-7593
▁wakenzesha	-7594
▁yakafilabo	-7595
buashibuashi	-7596
▁Bakasangana	-7597
▁Eleyehoenai	-7598
▁Kubambilaye	-7599
▁Kudisongidi	-7600
▁Kulumbulula	-7601
▁bakamushiha	-7602
▁bakashiheye	-7603
▁batentekele	-7604
▁hakatshiabu	-7605
▁kubikidisha	-7606
▁kulayangana	-7607
▁kunyangisha	-7608
▁kuvulangana	-7609
▁malongolodi	-7610
▁mpumbuluila	-7611
▁muakuambeye	-7612
▁mumufundile	-7613
▁neamuenzele	-7614
▁nenkuvuishe	-7615
▁nuakafuisha	-7616
▁nutendelela	-7617
▁nuvudishile	-7618
▁tshihungulu	-7619
▁tuakanyenga	-7620
▁udikobolola	-7621
▁wakabumusha	-7622
▁wakakukuila	-7623
▁wakatulesha	-7624
▁Kanusangishi	-7625
▁Mezopotamiya	-7626
▁bakamanyisha	-7627
▁buakuenjibua	-7628
▁hakaluhukeye	-7629
▁hatshiatshia	-7630
▁kuambuluisha	-7631
▁kubakobolola	-7632
▁kumutumbisha	-7633
▁muakabambila	-7634
▁mumanyangane	-7635
▁neadituadile	-7636
▁neanuhadishe	-7637
▁neanuvudishe	-7638
▁nuakashikama	-7639
▁tshipumbishi	-7640
▁tuakashikama	-7641
▁tuminyiminyi	-7642
▁wakamubikila	-7643
▁wakamunuisha	-7644
▁wakamutumina	-7645
▁wakashimbula	-7646
▁wakatahulula	-7647
▁bakashikamaku	-7648
▁kabakatangila	-7649
▁kulongololabo	-7650
▁kunyingalasha	-7651
▁nuakangambila	-7652
▁wakamulombola	-7653
▁wakamusangana	-7654
▁hakasangishabo	-7655
▁hakashikisheye	-7656
▁kabakatumikila	-7657
▁munakanuambila	-7658
▁munakunuambila	-7659
▁neakukuatshile	-7660
▁nebanyingalale	-7661
▁tshikundukundu	-7662
▁wakalambishila	-7663
▁wakanyunguluka	-7664
▁kabakamusangana	-7665
EH	-7666
KU	-7667
YI	-7668
ce	-7669
dô	-7670
ia	-7671
oo	-7672
EHO	-7673
ale	-7674
ete	-7675
nke	-7676
ony	-7677
rmi	-7678
rte	-7679
sen	-7680
éna	-7681
êle	-7682
▁Ré	-7683
▁Sû	-7684
▁et	-7685
▁fa	-7686
▁hê	-7687
▁lo	-7688
▁pê	-7689
banu	-7690
buku	-7691
dane	-7692
deke	-7693
dema	-7694
dugo	-7695
fade	-7696
gido	-7697
hada	-7698
hamu	-7699
hese	-7700
hoba	-7701
juke	-7702
kebi	-7703
keli	-7704
kije	-7705
kisu	-7706
kude	-7707
lule	-7708
ndiu	-7709
oshi	-7710
rese	-7711
safa	-7712
sala	-7713
saye	-7714
seku	-7715
sima	-7716
sine	-7717
sopa	-7718
suna	-7719
tadi	-7720
teye	-7721
tuhu	-7722
ucon	-7723
vila	-7724
wuja	-7725
yore	-7726
yuki	-7727
zana	-7728
▁Alu	-7729
▁Bwa	-7730
▁Bâz	-7731
▁DIA	-7732
▁Ebê	-7733
▁Ere	-7734
▁Ete	-7735
▁Imê	-7736
▁Ira	-7737
▁Leu	-7738
▁Lew	-7739
▁New	-7740
▁Ono	-7741
▁Ure	-7742
▁Yel	-7743
▁aha	-7744
▁bap	-7745
▁dii	-7746
▁kap	-7747
▁nvu	-7748
▁uha	-7749
▁âba	-7750
EHOWA	-7751
NGILA	-7752
aniya	-7753
biona	-7754
buiku	-7755
dieye	-7756
dimbi	-7757
dishi	-7758
fundu	-7759
hangi	-7760
hesha	-7761
ikila	-7762
ilabo	-7763
jiana	-7764
kuile	-7765
liona	-7766
ngama	-7767
nkutu	-7768
pande	-7769
rique	-7770
rneya	-7771
roits	-7772
sende	-7773
shama	-7774
shasa	-7775
shipi	-7776
taola	-7777
tiele	-7778
tompa	-7779
uette	-7780
wenza	-7781
yishe	-7782
▁BITA	-7783
▁Babi	-7784
▁Beta	-7785
▁Bowa	-7786
▁Bute	-7787
▁Bûdi	-7788
▁Gelâ	-7789
▁Giti	-7790
▁Huwa	-7791
▁Itai	-7792
▁Kabu	-7793
▁Kaka	-7794
▁Kedo	-7795
▁Keni	-7796
▁Kunu	-7797
▁Lema	-7798
▁MUTU	-7799
▁Male	-7800
▁Mati	-7801
▁Milo	-7802
▁Mole	-7803
▁Nobo	-7804
▁Nuyi	-7805
▁Penu	-7806
▁Sefo	-7807
▁Senî	-7808
▁Shua	-7809
▁Sidi	-7810
▁Sila	-7811
▁Soko	-7812
▁Tale	-7813
▁Yeli	-7814
▁bafu	-7815
▁baja	-7816
▁basa	-7817
▁biau	-7818
▁bing	-7819
▁bipu	-7820
▁dihu	-7821
▁dija	-7822
▁dima	-7823
▁dite	-7824
▁diye	-7825
▁gada	-7826
▁haha	-7827
▁idia	-7828
▁kuai	-7829
▁lubi	-7830
▁lulu	-7831
▁mbue	-7832
▁muji	-7833
▁tuko	-7834
▁udie	-7835
▁ufua	-7836
▁uhua	-7837
▁ukun	-7838
▁unde	-7839
▁wakû	-7840
▁wiba	-7841
batuma	-7842
dugoda	-7843
engeye	-7844
enzeke	-7845
felete	-7846
fuenke	-7847
fukeye	-7848
hatuke	-7849
heteye	-7850
hitshi	-7851
idisha	-7852
indile	-7853
jikabu	-7854
kadila	-7855
kebele	-7856
ladike	-7857
lubuka	-7858
lubulu	-7859
mamina	-7860
mbashe	-7861
moneye	-7862
mpinda	-7863
mpinga	-7864
mukeba	-7865
muyele	-7866
ndonda	-7867
nvuabo	-7868
samaka	-7869
senena	-7870
tekabo	-7871
tekedi	-7872
tekela	-7873
tuisha	-7874
twanga	-7875
udibua	-7876
vudije	-7877
zababa	-7878
▁Abele	-7879
▁Adema	-7880
▁Afeke	-7881
▁Agaga	-7882
▁Anake	-7883
▁Arame	-7884
▁Asaya	-7885
▁Benze	-7886
▁Biaka	-7887
▁Biamu	-7888
▁Bimbi	-7889
▁Bishi	-7890
▁Diina	-7891
▁Dimue	-7892
▁Enoke	-7893
▁Kapia	-7894
▁Karmi	-7895
▁Madai	-7896
▁Mulau	-7897
▁Muoyo	-7898
▁Nuaka	-7899
▁Nyoka	-7900
▁Ofela	-7901
▁Shama	-7902
▁Shemi	-7903
▁Sheta	-7904
▁Siona	-7905
▁Tapua	-7906
▁Tsine	-7907
▁Ulama	-7908
▁Uyaya	-7909
▁Yaele	-7910
▁akela	-7911
▁amone	-7912
▁bambe	-7913
▁bashi	-7914
▁bikai	-7915
▁bimba	-7916
▁biule	-7917
▁diaha	-7918
▁ditua	-7919
▁	-7920
a	-7921
u	-7922
i	-7923
e	-7924
n	-7925
b	-7926
m	-7927
k	-7928
l	-7929
s	-7930
d	-7931
h	-7932
t	-7933
o	-7934
,	-7935
w	-7936
y	-7937
g	-7938
p	-7939
z	-7940
B	-7941
Y	-7942
j	-7943
M	-7944
N	-7945
v	-7946
f	-7947
;	-7948
K	-7949
A	-7950
r	-7951
I	-7952
E	-7953
:	-7954
S	-7955
D	-7956
H	-7957
T	-7958
L	-7959
P	-7960
U	-7961
ô	-7962
â	-7963
W	-7964
î	-7965
G	-7966
ê	-7967
û	-7968
c	-7969
O	-7970
Z	-7971
é	-7972
R	-7973
Â	-7974
à	-7975
è	-7976
C	-7977
ì	-7978
J	-7979
q	-7980
ù	-7981
V	-7982
Ô	-7983
F	-7984
x	-7985
ï	-7986
ò	-7987
ä	-7988
í	-7989
ě	-7990
X	-7991
É	-7992
Î	-7993
Ï	-7994
Û	-7995
ç	-7996
