<unk>	0
<s>	0
</s>	0
▁b	-0
di	-1
▁m	-2
▁n	-3
an	-4
sh	-5
ku	-6
ka	-7
▁mu	-8
shi	-9
▁ne	-10
en	-11
▁bu	-12
▁ku	-13
wa	-14
la	-15
lu	-16
tu	-17
tshi	-18
▁wa	-19
▁ba	-20
le	-21
mb	-22
▁bi	-23
▁tshi	-24
▁di	-25
▁bua	-26
yi	-27
mu	-28
ab	-29
on	-30
ye	-31
▁B	-32
ke	-33
▁M	-34
▁u	-35
▁Y	-36
▁N	-37
ena	-38
▁ka	-39
amb	-40
ya	-41
▁a	-42
sha	-43
ma	-44
▁waka	-45
ila	-46
idi	-47
ba	-48
bu	-49
ang	-50
▁ma	-51
ana	-52
ta	-53
ha	-54
su	-55
▁Ye	-56
ng	-57
anyi	-58
andi	-59
te	-60
ua	-61
da	-62
▁lu	-63
eng	-64
ko	-65
so	-66
▁mi	-67
▁w	-68
aka	-69
▁mun	-70
lo	-71
▁K	-72
me	-73
▁baka	-74
▁udi	-75
ji	-76
sa	-77
she	-78
abo	-79
▁ban	-80
un	-81
ho	-82
▁tshia	-83
▁ha	-84
bi	-85
be	-86
▁kudi	-87
mi	-88
na	-89
enge	-90
▁Yeho	-91
▁ya	-92
onso	-93
▁e	-94
enu	-95
▁Yehowa	-96
▁Mu	-97
de	-98
bo	-99
hi	-100
▁bia	-101
▁bantu	-102
▁dia	-103
za	-104
▁bualu	-105
mba	-106
ambi	-107
pa	-108
lenge	-109
se	-110
▁A	-111
anu	-112
bidi	-113
abu	-114
▁me	-115
▁mua	-116
▁Bena	-117
ki	-118
mbu	-119
we	-120
kelenge	-121
ika	-122
zambi	-123
ene	-124
fu	-125
▁nu	-126
▁tu	-127
lele	-128
aba	-129
▁Nzambi	-130
▁H	-131
adi	-132
▁y	-133
▁I	-134
ebe	-135
ona	-136
▁muntu	-137
▁E	-138
▁S	-139
dimu	-140
vua	-141
nu	-142
anda	-143
pe	-144
anga	-145
ele	-146
ane	-147
▁badi	-148
▁kua	-149
▁D	-150
ntu	-151
▁ye	-152
amba	-153
ela	-154
ende	-155
loba	-156
tuku	-157
pi	-158
to	-159
▁T	-160
angila	-161
hu	-162
▁yeye	-163
ja	-164
▁anyi	-165
▁kabidi	-166
▁k	-167
▁buloba	-168
▁bena	-169
lume	-170
▁bana	-171
▁Ma	-172
nga	-173
unku	-174
ambila	-175
ken	-176
▁nsu	-177
▁malu	-178
vu	-179
lua	-180
kole	-181
ngu	-182
lon	-183
▁nsubu	-184
he	-185
▁P	-186
ze	-187
mue	-188
▁U	-189
▁ng	-190
salele	-191
▁Isalele	-192
▁L	-193
▁kadi	-194
▁bintu	-195
▁muana	-196
enga	-197
▁mukelenge	-198
yo	-199
akadi	-200
mpe	-201
ewe	-202
ngi	-203
▁Bua	-204
▁W	-205
▁wandi	-206
man	-207
li	-208
▁wakadi	-209
kumi	-210
▁mutu	-211
kuabo	-212
du	-213
anza	-214
▁Kadi	-215
▁bakadi	-216
▁muka	-217
ikale	-218
etu	-219
kua	-220
pala	-221
vidi	-222
teke	-223
▁Ba	-224
▁andi	-225
kadi	-226
▁adi	-227
▁bidi	-228
dî	-229
▁t	-230
onsu	-231
▁i	-232
▁Mo	-233
wu	-234
katshi	-235
▁kun	-236
▁h	-237
▁Ku	-238
▁dî	-239
bue	-240
kulu	-241
soko	-242
sang	-243
isha	-244
▁balume	-245
weja	-246
abi	-247
enza	-248
▁Nangila	-249
▁Maweja	-250
bua	-251
▁bonso	-252
▁Ha	-253
nyi	-254
do	-255
▁Bualu	-256
▁wakamu	-257
samba	-258
▁muo	-259
▁mudimu	-260
▁Yeye	-261
lela	-262
▁lua	-263
kila	-264
▁Bu	-265
▁nan	-266
vi	-267
▁mpala	-268
▁ndi	-269
kun	-270
ra	-271
san	-272
kama	-273
kon	-274
manye	-275
▁muan	-276
▁nunku	-277
▁nea	-278
▁Di	-279
▁wewe	-280
lambu	-281
▁Ya	-282
▁kumu	-283
▁pa	-284
▁muaba	-285
▁munkatshi	-286
tshima	-287
▁Nu	-288
▁nansha	-289
mbi	-290
▁Yo	-291
shishe	-292
▁Mukelenge	-293
kuna	-294
mbila	-295
▁tô	-296
▁mudi	-297
▁abo	-298
tatu	-299
▁Bi	-300
▁Ne	-301
▁bungi	-302
▁yonso	-303
▁luse	-304
▁Nunku	-305
▁dituku	-306
shila	-307
▁meme	-308
ikala	-309
angana	-310
jila	-311
▁wanyi	-312
▁makumi	-313
▁kaba	-314
▁muoyo	-315
go	-316
▁muanda	-317
mbe	-318
mona	-319
▁neba	-320
▁Tshi	-321
uda	-322
tunga	-323
▁to	-324
enze	-325
▁Da	-326
▁mesu	-327
ile	-328
jipi	-329
jipitu	-330
▁Ejipitu	-331
aku	-332
▁budi	-333
▁Yuda	-334
kane	-335
▁eu	-336
shale	-337
yu	-338
▁mukashi	-339
yele	-340
▁mai	-341
▁mei	-342
▁matuku	-343
tabu	-344
▁ebu	-345
▁waku	-346
fe	-347
▁bakashi	-348
▁anu	-349
ambe	-350
▁onso	-351
▁wamba	-352
ambu	-353
kenji	-354
▁mushi	-355
▁Davidi	-356
one	-357
▁au	-358
satu	-359
obo	-360
ne	-361
▁nvi	-362
▁bandi	-363
▁nen	-364
kan	-365
tangila	-366
▁Yesu	-367
kela	-368
▁baku	-369
▁musoko	-370
▁mui	-371
▁dina	-372
tekete	-373
pu	-374
▁idi	-375
▁Pa	-376
▁tshidi	-377
ga	-378
▁Le	-379
▁kanu	-380
▁webe	-381
▁ditunga	-382
mbo	-383
▁Iz	-384
sanka	-385
▁nuenu	-386
manyi	-387
kidi	-388
▁G	-389
▁Mun	-390
▁bukole	-391
▁bun	-392
ulu	-393
▁Izra	-394
▁Izrayele	-395
▁tshianza	-396
▁Haka	-397
▁p	-398
hia	-399
▁han	-400
tende	-401
▁didi	-402
▁tatu	-403
kale	-404
enz	-405
▁umue	-406
lama	-407
▁munda	-408
▁tshitu	-409
▁mutekete	-410
▁tshijila	-411
yama	-412
yima	-413
▁Udi	-414
▁mulambu	-415
▁mene	-416
▁wakamba	-417
▁nvita	-418
▁Me	-419
▁musu	-420
▁bianza	-421
▁wakambila	-422
lenga	-423
▁Mose	-424
▁dikumi	-425
▁din	-426
longo	-427
wi	-428
▁wenu	-429
lula	-430
▁Muntu	-431
mana	-432
▁awu	-433
koke	-434
lona	-435
re	-436
kuatshi	-437
tabusha	-438
lelela	-439
▁luseke	-440
lala	-441
lumbu	-442
▁muena	-443
▁nyama	-444
fun	-445
unu	-446
muna	-447
ula	-448
enyi	-449
▁mulume	-450
fila	-451
▁bionso	-452
▁Baka	-453
kanu	-454
lola	-455
tanu	-456
▁bobo	-457
sto	-458
ten	-459
▁Wewe	-460
teka	-461
▁mutshima	-462
▁kena	-463
▁Ki	-464
▁Hashishe	-465
▁Mi	-466
▁Ka	-467
angata	-468
▁Mvidi	-469
▁Mukulu	-470
▁bubi	-471
▁kunu	-472
▁Ndi	-473
▁Ban	-474
enda	-475
▁bakamu	-476
▁Moshe	-477
▁nenu	-478
lulu	-479
mo	-480
▁bin	-481
tumbi	-482
▁yabo	-483
▁biandi	-484
▁diaka	-485
▁man	-486
▁Yelu	-487
▁mashi	-488
▁bui	-489
kana	-490
kisha	-491
ambile	-492
▁ebe	-493
hita	-494
▁Kanu	-495
fi	-496
mane	-497
shalema	-498
▁Yelushalema	-499
mina	-500
shiha	-501
▁haka	-502
▁disanka	-503
kenza	-504
▁bidimu	-505
shete	-506
kele	-507
kula	-508
▁Yako	-509
▁nyima	-510
▁diandi	-511
sungu	-512
kanda	-513
▁ngo	-514
▁nudi	-515
▁wakab	-516
▁bisamba	-517
▁Bantu	-518
▁Kili	-519
▁mila	-520
je	-521
▁kayi	-522
▁Kilisto	-523
▁babo	-524
udi	-525
▁aba	-526
▁buandi	-527
bala	-528
▁Nan	-529
▁kai	-530
tamba	-531
▁diulu	-532
▁tshintu	-533
▁naka	-534
▁kui	-535
▁kudia	-536
▁tshisamba	-537
▁Sa	-538
▁nka	-539
lelu	-540
▁edi	-541
▁uvua	-542
konka	-543
▁Bana	-544
▁kutu	-545
abidi	-546
▁nshila	-547
▁nku	-548
▁kahia	-549
▁bwa	-550
lang	-551
▁Sha	-552
fua	-553
▁diba	-554
▁buabo	-555
muka	-556
buela	-557
sumbu	-558
▁enu	-559
▁ngombe	-560
▁biebe	-561
▁mikenji	-562
▁milambu	-563
▁abi	-564
abue	-565
sangu	-566
▁Muena	-567
▁un	-568
▁â	-569
▁mukuabo	-570
kuata	-571
▁mabi	-572
▁tshio	-573
ban	-574
lue	-575
londa	-576
▁tshiamu	-577
tula	-578
▁abu	-579
manya	-580
son	-581
kese	-582
▁mbu	-583
▁tshiende	-584
▁dianyi	-585
mena	-586
▁bakuabo	-587
▁kuenza	-588
kondo	-589
dilu	-590
bena	-591
▁yenu	-592
kasa	-593
▁mumanye	-594
fue	-595
jadi	-596
▁atshi	-597
shala	-598
▁munyi	-599
▁tshin	-600
▁buonso	-601
▁mitshima	-602
▁bimpe	-603
koko	-604
ro	-605
fika	-606
ishe	-607
tuma	-608
kuidi	-609
▁tshiandi	-610
hika	-611
▁abidi	-612
luka	-613
▁kuku	-614
bikila	-615
▁Lu	-616
▁wakaba	-617
fa	-618
▁benu	-619
tenta	-620
▁Nanku	-621
tang	-622
▁mabue	-623
▁kuo	-624
shika	-625
tshia	-626
▁wakamuambila	-627
bui	-628
▁neu	-629
▁na	-630
kiya	-631
▁kundi	-632
▁butumbi	-633
kena	-634
▁hanshi	-635
hing	-636
▁bienu	-637
▁kudiye	-638
▁wakaya	-639
olo	-640
▁bonsu	-641
▁Badi	-642
shibua	-643
▁bukelenge	-644
kala	-645
▁mula	-646
ti	-647
▁Be	-648
▁o	-649
▁tshituha	-650
enzela	-651
shu	-652
▁tudi	-653
▁nkama	-654
▁tshinyi	-655
yuma	-656
▁mukuna	-657
▁ntenta	-658
▁mp	-659
▁kum	-660
▁tshidimu	-661
▁bibi	-662
zu	-663
▁misoko	-664
kenga	-665
kenge	-666
▁Meme	-667
angu	-668
sangisha	-669
▁aka	-670
▁Waka	-671
▁bamu	-672
▁mamu	-673
▁bende	-674
shikama	-675
▁Si	-676
fete	-677
taka	-678
sambu	-679
▁kuba	-680
hela	-681
▁kaku	-682
▁tshiji	-683
▁bamanye	-684
samb	-685
▁Mona	-686
▁bionsu	-687
ondo	-688
▁tuetu	-689
▁Ta	-690
▁tua	-691
▁Shaula	-692
▁c	-693
nda	-694
▁Na	-695
ambedi	-696
pro	-697
▁musue	-698
langana	-699
profete	-700
▁muele	-701
▁kabena	-702
▁meji	-703
▁mutshi	-704
mbua	-705
▁tshiendelele	-706
tua	-707
▁difu	-708
▁midi	-709
tendelela	-710
kile	-711
▁wakalua	-712
▁lufu	-713
▁mpu	-714
▁tshim	-715
▁bilulu	-716
ngidi	-717
▁or	-718
ngenyi	-719
▁yonsu	-720
endu	-721
kudimu	-722
▁biabo	-723
▁bidia	-724
hue	-725
▁tshiaka	-726
▁umu	-727
▁mitshi	-728
▁lukuna	-729
sambo	-730
▁neb	-731
▁kuandi	-732
▁kuya	-733
keba	-734
banda	-735
shibue	-736
▁binunu	-737
▁diambedi	-738
ndi	-739
tumi	-740
uaku	-741
▁bebe	-742
▁Nuenu	-743
eye	-744
file	-745
tuka	-746
▁babidi	-747
▁Abi	-748
▁nebi	-749
▁banyi	-750
▁neikale	-751
mpa	-752
ûdi	-753
▁Ke	-754
▁ebi	-755
kuabu	-756
▁ke	-757
▁ibidi	-758
▁tshikondo	-759
▁kulu	-760
ndu	-761
▁mpa	-762
▁Z	-763
▁Wa	-764
tshidi	-765
▁mikoko	-766
kunvua	-767
▁muenu	-768
▁bunene	-769
▁mubidi	-770
▁mushinga	-771
▁kuosha	-772
nshi	-773
shelu	-774
▁wetu	-775
▁Lewi	-776
▁Nen	-777
angaji	-778
▁muaka	-779
▁betu	-780
▁Eli	-781
▁nde	-782
shile	-783
andu	-784
yidi	-785
▁Ar	-786
angate	-787
▁buihi	-788
▁muakuidi	-789
ent	-790
belu	-791
dene	-792
▁tshibi	-793
▁kaka	-794
▁tshisumbu	-795
ge	-796
▁mpi	-797
▁wak	-798
▁lumu	-799
▁lungenyi	-800
▁O	-801
jidi	-802
seke	-803
▁ludi	-804
hele	-805
sua	-806
tambe	-807
gent	-808
talala	-809
▁Alona	-810
▁asatu	-811
▁tshimue	-812
▁wakabambila	-813
▁Tu	-814
▁bikole	-815
▁bakuidi	-816
▁kuambila	-817
▁bitu	-818
hianyi	-819
kokeshi	-820
▁ar	-821
▁ana	-822
lumbulu	-823
▁argent	-824
▁bibidi	-825
senge	-826
tshina	-827
sungula	-828
huka	-829
shua	-830
▁manene	-831
▁amu	-832
lamba	-833
▁Tatu	-834
yun	-835
hidi	-836
langanyi	-837
▁nkay	-838
▁mishi	-839
kalenga	-840
▁kabayi	-841
▁She	-842
▁wabo	-843
▁mukanda	-844
funda	-845
▁yakadi	-846
zubu	-847
▁Pele	-848
▁Muana	-849
shihe	-850
tataka	-851
hingana	-852
▁kunudi	-853
▁kuikala	-854
dia	-855
buele	-856
▁yaka	-857
kenshi	-858
▁Arone	-859
▁tshioshelu	-860
▁Dî	-861
▁mikuna	-862
▁mukole	-863
▁mulu	-864
enzele	-865
▁miaba	-866
▁lelu	-867
▁mayi	-868
▁biakadi	-869
▁utu	-870
sala	-871
tele	-872
sambombo	-873
▁tshiena	-874
sumba	-875
owa	-876
▁bule	-877
▁Nyuma	-878
▁bavua	-879
▁biaka	-880
▁bulelela	-881
▁ngondo	-882
▁muakadi	-883
nudi	-884
▁etu	-885
▁nyun	-886
▁Yakobe	-887
▁bakaya	-888
▁Pashishe	-889
ou	-890
▁naku	-891
kambua	-892
▁nzubu	-893
▁midimu	-894
▁mushete	-895
sengelela	-896
lombo	-897
▁katu	-898
▁diebe	-899
ente	-900
fumu	-901
▁batu	-902
▁yandi	-903
▁buakadi	-904
▁tshianyi	-905
▁mmu	-906
▁hatu	-907
vuisha	-908
▁etshi	-909
▁bimuna	-910
▁tshihu	-911
▁kumpala	-912
ilu	-913
▁Aba	-914
sangana	-915
don	-916
▁He	-917
sama	-918
shikame	-919
jima	-920
shiya	-921
▁manyi	-922
▁Naka	-923
▁mukulu	-924
zi	-925
tana	-926
olomo	-927
▁akadi	-928
▁Solomo	-929
▁mukenji	-930
luke	-931
anshi	-932
enzedi	-933
▁Yakoba	-934
▁batatu	-935
▁ndelanganyi	-936
enji	-937
bika	-938
lame	-939
▁kub	-940
ée	-941
▁kabi	-942
angane	-943
kokesha	-944
▁bakalua	-945
▁bankambua	-946
oud	-947
▁he	-948
ishi	-949
jingu	-950
▁munene	-951
lomba	-952
oudée	-953
▁buebe	-954
▁coudée	-955
longolola	-956
mone	-957
toke	-958
▁Shi	-959
▁buenu	-960
▁tshiakadi	-961
uaka	-962
▁kuebe	-963
si	-964
nai	-965
taba	-966
tshu	-967
lengele	-968
▁munyinyi	-969
jelo	-970
▁bim	-971
▁nte	-972
▁bamba	-973
lami	-974
▁makasa	-975
▁mukana	-976
▁Peleshete	-977
tule	-978
ngila	-979
vudi	-980
▁ewu	-981
▁mbua	-982
▁bakulu	-983
kudimuna	-984
manyisha	-985
nyo	-986
▁mwa	-987
▁kabaka	-988
leke	-989
▁biaku	-990
▁butuku	-991
sete	-992
vula	-993
▁Nudi	-994
▁bakelenge	-995
▁babi	-996
lekela	-997
▁tente	-998
▁ditalala	-999
▁madi	-1000
▁bivua	-1001
▁bukula	-1002
tendelelu	-1003
▁bikale	-1004
▁buhianyi	-1005
▁bikala	-1006
handu	-1007
▁kuanyi	-1008
gu	-1009
▁meku	-1010
▁bundu	-1011
▁mb	-1012
hama	-1013
impe	-1014
kidila	-1015
▁hakadi	-1016
▁musangu	-1017
▁Ab	-1018
▁tshihela	-1019
▁Se	-1020
kalu	-1021
songa	-1022
salayi	-1023
▁bakaji	-1024
▁nzambi	-1025
bilu	-1026
▁Yele	-1027
jadika	-1028
▁meshi	-1029
▁nseke	-1030
▁nganyi	-1031
▁ditabusha	-1032
▁Su	-1033
▁ai	-1034
▁netu	-1035
▁waki	-1036
▁budimi	-1037
▁buakane	-1038
abe	-1039
lesha	-1040
▁munu	-1041
▁nebu	-1042
▁buanyi	-1043
▁muakane	-1044
▁mbelu	-1045
▁coudées	-1046
▁Yoze	-1047
mbisha	-1048
▁Ga	-1049
fuma	-1050
▁kuabo	-1051
▁Yozefe	-1052
musha	-1053
▁kabu	-1054
fo	-1055
▁be	-1056
jitu	-1057
buikila	-1058
▁mona	-1059
▁dibue	-1060
▁mukaji	-1061
▁misangu	-1062
▁tshihungidi	-1063
panga	-1064
tanda	-1065
▁Babu	-1066
▁atanu	-1067
langane	-1068
hidia	-1069
▁Abra	-1070
▁katataka	-1071
jimi	-1072
▁lukama	-1073
▁muandi	-1074
▁Bulelela	-1075
po	-1076
unda	-1077
▁Monai	-1078
▁musulu	-1079
▁wenza	-1080
▁diakadi	-1081
▁Babulona	-1082
sue	-1083
▁Abala	-1084
▁Abalahama	-1085
futa	-1086
▁aku	-1087
▁too	-1088
▁tshiebe	-1089
nso	-1090
lota	-1091
yisha	-1092
▁kanuena	-1093
▁wakalela	-1094
lia	-1095
muma	-1096
▁lubilu	-1097
▁madimi	-1098
▁hashishe	-1099
mpelo	-1100
angala	-1101
▁mpata	-1102
mui	-1103
ônso	-1104
▁Pe	-1105
koku	-1106
mene	-1107
miya	-1108
saka	-1109
▁kûdi	-1110
▁muku	-1111
tshiama	-1112
ledi	-1113
▁hehi	-1114
▁kulua	-1115
▁mundi	-1116
▁mikiya	-1117
kuatshisha	-1118
ju	-1119
londe	-1120
▁muoyi	-1121
▁Yoshua	-1122
luhuka	-1123
▁munya	-1124
longolo	-1125
▁kakuena	-1126
kebe	-1127
mushe	-1128
lamata	-1129
▁mumane	-1130
mon	-1131
muele	-1132
yungu	-1133
▁hatuhu	-1134
bang	-1135
hata	-1136
▁mimpe	-1137
andamuna	-1138
▁nebikale	-1139
▁mukalenga	-1140
muene	-1141
kishe	-1142
▁buko	-1143
▁ikale	-1144
▁nyunyu	-1145
badi	-1146
▁Kan	-1147
lambuilu	-1148
▁muinshi	-1149
▁kan	-1150
▁buimpe	-1151
sambakena	-1152
▁ntempelo	-1153
tema	-1154
▁Kena	-1155
▁Yose	-1156
▁nenku	-1157
▁kudibo	-1158
▁mumu	-1159
jidila	-1160
▁wakan	-1161
▁tshifu	-1162
fike	-1163
▁mio	-1164
▁dinda	-1165
▁isatu	-1166
▁muvua	-1167
tangile	-1168
tshisha	-1169
▁wakatu	-1170
▁misumba	-1171
▁mushindu	-1172
shabo	-1173
▁mubi	-1174
▁batshi	-1175
▁mikenshi	-1176
tan	-1177
▁Yosefe	-1178
itabusha	-1179
kema	-1180
kuate	-1181
sombe	-1182
engu	-1183
▁Bobo	-1184
▁Padi	-1185
▁benza	-1186
jingulula	-1187
▁hankatshi	-1188
▁kusambakena	-1189
hua	-1190
lea	-1191
▁La	-1192
▁bayidi	-1193
▁muimpe	-1194
▁mvi	-1195
▁tshilulu	-1196
jika	-1197
▁diku	-1198
▁onsu	-1199
▁buaka	-1200
▁banene	-1201
kengesha	-1202
▁tshitendelelu	-1203
▁yanyi	-1204
▁matshu	-1205
▁dikenga	-1206
kenz	-1207
▁Kanungu	-1208
▁bakamba	-1209
▁masalayi	-1210
▁tshilambuilu	-1211
fundi	-1212
▁padi	-1213
▁itanu	-1214
lombodi	-1215
▁kubu	-1216
tshila	-1217
▁kuenu	-1218
yenga	-1219
andisha	-1220
▁kumona	-1221
▁mutuangaji	-1222
▁Bia	-1223
kunze	-1224
▁wikale	-1225
lolo	-1226
▁mpingu	-1227
taku	-1228
▁Pal	-1229
▁Nenu	-1230
▁yebe	-1231
tshiha	-1232
▁nebamu	-1233
sandi	-1234
▁mibi	-1235
tshinyi	-1236
▁bianyi	-1237
▁biakudia	-1238
lâ	-1239
ton	-1240
▁bo	-1241
▁mba	-1242
kuasa	-1243
▁Neba	-1244
▁Yadene	-1245
▁Yelemiya	-1246
longa	-1247
kuatshila	-1248
▁muprofete	-1249
▁Ko	-1250
tombo	-1251
▁Bikala	-1252
▁disama	-1253
tene	-1254
▁ham	-1255
senga	-1256
▁muabo	-1257
ananshi	-1258
sungila	-1259
▁wakangata	-1260
balu	-1261
leye	-1262
yeye	-1263
▁babu	-1264
▁nanku	-1265
▁nkanu	-1266
▁bujitu	-1267
▁wakela	-1268
▁baprofete	-1269
▁R	-1270
minu	-1271
sanga	-1272
▁Naku	-1273
pitene	-1274
▁Palô	-1275
▁anai	-1276
▁ditu	-1277
▁masandi	-1278
▁tshishi	-1279
▁manananshi	-1280
hueka	-1281
londo	-1282
mumue	-1283
▁neanu	-1284
▁Samuele	-1285
oko	-1286
▁Ef	-1287
fata	-1288
enya	-1289
▁binu	-1290
▁tshitudilu	-1291
▁diabo	-1292
hame	-1293
▁Levi	-1294
▁bute	-1295
▁Dituku	-1296
▁mianda	-1297
▁bienzedi	-1298
kishi	-1299
▁hana	-1300
▁mamuma	-1301
▁nkuasa	-1302
oke	-1303
ulo	-1304
▁Gi	-1305
tala	-1306
▁Bala	-1307
▁Muan	-1308
▁baba	-1309
manyinu	-1310
sankisha	-1311
▁makenga	-1312
▁wakafua	-1313
songalume	-1314
êyi	-1315
▁mbi	-1316
▁kubi	-1317
▁Paulo	-1318
anganyi	-1319
▁mafuta	-1320
longolodi	-1321
▁Bâ	-1322
▁Ze	-1323
▁ei	-1324
yema	-1325
somba	-1326
hatuka	-1327
▁esete	-1328
▁kabai	-1329
▁mulau	-1330
▁Esa	-1331
▁dinene	-1332
▁Abrahame	-1333
▁Ge	-1334
▁Ng	-1335
▁Un	-1336
▁Hakadi	-1337
▁Ditunga	-1338
▁Tshiena	-1339
▁tshikole	-1340
▁wakatuma	-1341
▁kashi	-1342
abui	-1343
hite	-1344
▁Ama	-1345
▁Amo	-1346
▁kuyi	-1347
▁Benya	-1348
▁basue	-1349
▁bisatu	-1350
▁katshi	-1351
▁lukanu	-1352
▁nvinyo	-1353
▁Benyamina	-1354
▁Tudi	-1355
▁Yona	-1356
buelelu	-1357
lambula	-1358
▁kuamba	-1359
▁bisumbu	-1360
tshika	-1361
▁tumuma	-1362
haba	-1363
▁luandi	-1364
pia	-1365
▁Ash	-1366
▁new	-1367
mbula	-1368
shihi	-1369
▁Dîyi	-1370
▁balu	-1371
▁kuena	-1372
ina	-1373
anana	-1374
▁tulu	-1375
▁Moaba	-1376
tabushe	-1377
▁dikole	-1378
▁Tangila	-1379
▁bilamba	-1380
▁kumudilu	-1381
vue	-1382
ôde	-1383
waku	-1384
wita	-1385
▁bakan	-1386
▁tshilumbu	-1387
kâ	-1388
abaya	-1389
▁nvula	-1390
▁lukasa	-1391
pela	-1392
vuabu	-1393
▁diko	-1394
▁neng	-1395
▁bituha	-1396
▁muikale	-1397
kumb	-1398
pika	-1399
kenze	-1400
kumba	-1401
pwita	-1402
▁banu	-1403
▁lupe	-1404
▁dienu	-1405
▁bakaba	-1406
▁netshi	-1407
▁dinanga	-1408
▁tshionso	-1409
mwe	-1410
ping	-1411
▁lue	-1412
▁butu	-1413
▁makun	-1414
▁kufila	-1415
▁Yi	-1416
▁ub	-1417
tela	-1418
▁nga	-1419
▁ndon	-1420
jadike	-1421
tumina	-1422
▁nyuma	-1423
kangata	-1424
▁mena	-1425
▁mufu	-1426
▁difutu	-1427
▁luendu	-1428
lamatadi	-1429
▁tshimenga	-1430
▁ho	-1431
dome	-1432
sabu	-1433
telo	-1434
▁mesa	-1435
▁mule	-1436
▁ulua	-1437
▁Isaka	-1438
anyinga	-1439
▁bahika	-1440
▁maluvu	-1441
▁nakadi	-1442
▁l	-1443
sesu	-1444
▁eyi	-1445
mingu	-1446
▁Kaku	-1447
jalame	-1448
▁dikulu	-1449
▁Misambu	-1450
▁tshitema	-1451
▁nem	-1452
▁ngu	-1453
ngile	-1454
kidilu	-1455
▁kufua	-1456
mine	-1457
bamba	-1458
▁kule	-1459
▁mêyi	-1460
▁buatu	-1461
▁bitanu	-1462
▁buhika	-1463
▁mpunda	-1464
tekemena	-1465
▁bikuabo	-1466
▁kuluangana	-1467
▁tshimpanga	-1468
ri	-1469
▁we	-1470
▁alu	-1471
banji	-1472
hingi	-1473
yangu	-1474
▁nshi	-1475
▁Amona	-1476
▁kuela	-1477
▁nennu	-1478
▁tuaka	-1479
▁mikuabo	-1480
▁tshinene	-1481
ola	-1482
âna	-1483
▁Lo	-1484
juka	-1485
▁nedi	-1486
▁muadi	-1487
bambalu	-1488
▁balami	-1489
▁mbushi	-1490
▁tubalu	-1491
▁Wakenza	-1492
▁kubuela	-1493
▁mitanda	-1494
▁nkusengelela	-1495
▁uba	-1496
okeshi	-1497
▁biamu	-1498
▁kushi	-1499
▁mvita	-1500
hingane	-1501
tenteke	-1502
▁luimpe	-1503
▁mabaya	-1504
tumikila	-1505
▁diakalua	-1506
idilu	-1507
▁Yone	-1508
▁baki	-1509
▁lumbu	-1510
▁udibo	-1511
▁muhika	-1512
▁makuabo	-1513
▁muanjelo	-1514
▁bakashikama	-1515
ven	-1516
kelu	-1517
oshe	-1518
▁Mana	-1519
▁Petelo	-1520
▁tshibu	-1521
▁bimenga	-1522
▁nuambila	-1523
▁bukokeshi	-1524
▁tshibuelelu	-1525
oa	-1526
▁ki	-1527
kule	-1528
▁nnu	-1529
hanga	-1530
▁monai	-1531
▁Bakamu	-1532
▁kakadi	-1533
▁kutshi	-1534
▁mpindi	-1535
▁Kenaane	-1536
lumbulula	-1537
▁kuangata	-1538
▁tshibanda	-1539
▁tshilamba	-1540
kuku	-1541
song	-1542
▁beena	-1543
▁dimue	-1544
▁wonso	-1545
ange	-1546
▁unu	-1547
▁Muka	-1548
▁Efela	-1549
▁muanze	-1550
▁wakabi	-1551
▁bikondo	-1552
▁kashidi	-1553
▁tshivua	-1554
▁kubuikila	-1555
mp	-1556
mia	-1557
hona	-1558
fuila	-1559
kibue	-1560
ambula	-1561
▁Shime	-1562
▁buowa	-1563
▁kunua	-1564
▁muanyi	-1565
lengesha	-1566
bangidilu	-1567
muke	-1568
yoka	-1569
▁nua	-1570
▁benda	-1571
▁nuaku	-1572
▁tshile	-1573
sakidila	-1574
▁musenga	-1575
yunguluka	-1576
▁bukalenga	-1577
sia	-1578
dika	-1579
▁Ahi	-1580
▁luh	-1581
suika	-1582
zikiya	-1583
▁mbuji	-1584
▁Betele	-1585
▁mashimi	-1586
▁butshiama	-1587
▁wi	-1588
heta	-1589
nene	-1590
zake	-1591
▁mab	-1592
▁Malu	-1593
▁Izake	-1594
▁Yoaba	-1595
▁mukalu	-1596
▁katuena	-1597
▁nuikale	-1598
▁muomumue	-1599
anji	-1600
keme	-1601
peta	-1602
waka	-1603
▁Kab	-1604
pesha	-1605
▁neyi	-1606
▁nshe	-1607
▁Sulia	-1608
▁muaku	-1609
▁wenda	-1610
kolesha	-1611
▁mukuabu	-1612
▁mushiku	-1613
▁Hezikiya	-1614
▁wakabuela	-1615
▁kutendelela	-1616
▁,	-1617
▁Han	-1618
▁biu	-1619
▁tun	-1620
vensa	-1621
▁numu	-1622
ebesha	-1623
▁kufika	-1624
ngambila	-1625
olovensa	-1626
sangishe	-1627
▁bashikame	-1628
▁So	-1629
angi	-1630
seba	-1631
welu	-1632
hueke	-1633
kanyi	-1634
yanga	-1635
▁neamu	-1636
▁dilolo	-1637
▁Manashe	-1638
▁nshekele	-1639
▁tshikuabo	-1640
▁Hi	-1641
ongo	-1642
▁Asa	-1643
▁mpungi	-1644
▁wakabika	-1645
hote	-1646
yila	-1647
▁Aha	-1648
▁Lab	-1649
fuile	-1650
ilada	-1651
kibua	-1652
▁bishi	-1653
▁dishi	-1654
▁mitaku	-1655
▁kumanya	-1656
▁misambu	-1657
londolola	-1658
▁batshipwita	-1659
eme	-1660
▁li	-1661
kima	-1662
tahu	-1663
▁ayi	-1664
▁nun	-1665
▁bula	-1666
▁matu	-1667
meleke	-1668
▁Pikala	-1669
▁wakenza	-1670
▁polovensa	-1671
abuipi	-1672
▁buetu	-1673
▁hanyi	-1674
▁Kanâna	-1675
▁mukoku	-1676
▁pabuipi	-1677
▁mishindu	-1678
▁tshinunu	-1679
▁Efelayima	-1680
baka	-1681
sulu	-1682
talu	-1683
teng	-1684
jinga	-1685
sheye	-1686
shuwa	-1687
wungi	-1688
▁Ashû	-1689
▁Bidi	-1690
▁bifu	-1691
▁hadi	-1692
▁Bintu	-1693
▁bulongolodi	-1694
dabo	-1695
kame	-1696
kitu	-1697
elela	-1698
ikadi	-1699
minyi	-1700
muinu	-1701
vuluke	-1702
▁handi	-1703
▁kunyi	-1704
▁nasha	-1705
▁kanuyi	-1706
luangana	-1707
▁mutambe	-1708
▁mpawungi	-1709
▁mushikame	-1710
▁wakakokesha	-1711
▁diakalengele	-1712
sâ	-1713
kwa	-1714
nya	-1715
kita	-1716
kobo	-1717
▁basatu	-1718
▁kulela	-1719
▁makalu	-1720
▁Yonatana	-1721
engi	-1722
pita	-1723
pite	-1724
pangu	-1725
▁bietu	-1726
▁mampa	-1727
▁Kanuena	-1728
▁Mikenji	-1729
shikidilu	-1730
▁tatuende	-1731
▁Bukalenga	-1732
▁bakamuambila	-1733
lone	-1734
onshi	-1735
tekelu	-1736
▁Nenku	-1737
▁bafue	-1738
bambila	-1739
▁bukitu	-1740
▁kukema	-1741
▁ndondu	-1742
▁wakabikila	-1743
ni	-1744
bulu	-1745
kuma	-1746
▁Lua	-1747
▁Mbu	-1748
▁Yobo	-1749
▁mitu	-1750
▁muhu	-1751
▁tala	-1752
hatula	-1753
▁dimpe	-1754
▁talalâ	-1755
▁wakumuka	-1756
▁kutangila	-1757
luisha	-1758
▁luebe	-1759
kelesia	-1760
▁diende	-1761
▁dionso	-1762
▁dikuabo	-1763
nganyinga	-1764
▁Mulombodi	-1765
▁Eu	-1766
▁nd	-1767
neme	-1768
▁yetu	-1769
sokoka	-1770
vuluka	-1771
▁Edome	-1772
▁wakun	-1773
▁wende	-1774
kenzeye	-1775
▁tshiadi	-1776
angambila	-1777
▁ekelesia	-1778
▁makunshi	-1779
▁newikale	-1780
hunga	-1781
kunvu	-1782
shaya	-1783
▁Tuetu	-1784
▁Kakuena	-1785
▁bakenza	-1786
▁asambombo	-1787
▁tshianana	-1788
▁bio	-1789
▁elu	-1790
hamue	-1791
mbaja	-1792
tangi	-1793
▁hanua	-1794
kenzela	-1795
sungile	-1796
▁bakane	-1797
▁tshiba	-1798
▁kuinshi	-1799
fuka	-1800
kose	-1801
tume	-1802
eneka	-1803
▁Kaba	-1804
▁Sama	-1805
▁luhe	-1806
kidile	-1807
tshilu	-1808
vuishe	-1809
▁Nansha	-1810
▁bukoya	-1811
▁nealue	-1812
▁kushala	-1813
▁muanabu	-1814
▁eku	-1815
▁Waku	-1816
▁nôde	-1817
kanunu	-1818
▁kanyi	-1819
▁mputa	-1820
▁nende	-1821
▁pamue	-1822
▁bamane	-1823
▁bulalu	-1824
▁kuteka	-1825
▁mulami	-1826
tumbisha	-1827
▁Yeshaya	-1828
▁bilonde	-1829
▁hohamue	-1830
▁kujadika	-1831
▁bashikama	-1832
gi	-1833
▁F	-1834
▁Ti	-1835
buka	-1836
dibua	-1837
hisha	-1838
mbele	-1839
shipe	-1840
▁Bete	-1841
▁Mika	-1842
▁ntshi	-1843
▁Muimpe	-1844
▁kutudi	-1845
▁Mukashi	-1846
▁bilumbu	-1847
▁wakateka	-1848
▁kuandamuna	-1849
▁wakashikama	-1850
▁En	-1851
loma	-1852
vuai	-1853
▁Ela	-1854
bandi	-1855
sanke	-1856
vidie	-1857
▁Baku	-1858
▁kuha	-1859
lobama	-1860
▁mioyo	-1861
▁biende	-1862
▁mvidie	-1863
▁tshihi	-1864
▁Yalobama	-1865
▁tshipela	-1866
▁bakambila	-1867
▁wakashiha	-1868
ewu	-1869
▁su	-1870
bula	-1871
▁nabi	-1872
▁nabu	-1873
sabuka	-1874
▁kuaka	-1875
▁miosa	-1876
▁tuaku	-1877
▁bakela	-1878
▁Samalea	-1879
▁dishiya	-1880
▁nenuikale	-1881
▁kunshikidilu	-1882
▁g	-1883
▁aa	-1884
liya	-1885
tuke	-1886
▁atu	-1887
mfumu	-1888
peshe	-1889
▁bela	-1890
▁muba	-1891
▁yabu	-1892
anjila	-1893
lekele	-1894
▁muebe	-1895
▁njila	-1896
mueneka	-1897
▁bidibo	-1898
▁kunoko	-1899
▁mikoku	-1900
anyikishi	-1901
▁hakadiye	-1902
▁tshiakabidi	-1903
▁kanyinganyinga	-1904
die	-1905
kilu	-1906
kandu	-1907
kenda	-1908
sengu	-1909
▁mufue	-1910
▁nemba	-1911
▁ngasa	-1912
▁panshi	-1913
kobolola	-1914
ve	-1915
men	-1916
▁kw	-1917
▁kâ	-1918
▁twa	-1919
▁ubi	-1920
▁avua	-1921
▁kale	-1922
▁Ahaba	-1923
shaloma	-1924
▁Yehoya	-1925
▁Abimeleke	-1926
▁Abashaloma	-1927
▁wakahingana	-1928
mpi	-1929
laba	-1930
mika	-1931
mvua	-1932
mbeye	-1933
sombu	-1934
▁Ashe	-1935
▁baye	-1936
▁Eliya	-1937
▁benyi	-1938
songaka	-1939
▁Bakadi	-1940
▁Buloba	-1941
▁mpumbu	-1942
▁luhandu	-1943
▁isambombo	-1944
▁nebuikale	-1945
vui	-1946
naku	-1947
▁Mua	-1948
▁Nun	-1949
longu	-1950
▁Bâla	-1951
▁bobu	-1952
▁binua	-1953
▁bumue	-1954
▁diaku	-1955
▁mbila	-1956
▁tshiabo	-1957
▁nkayandi	-1958
▁tshidibo	-1959
▁tshitupa	-1960
▁wakabanga	-1961
▁wakakonka	-1962
lumbuluishi	-1963
▁uya	-1964
mbile	-1965
yenge	-1966
▁bulu	-1967
▁ivua	-1968
▁luku	-1969
▁luaka	-1970
▁kumuka	-1971
▁wakaha	-1972
▁malonga	-1973
▁mishiku	-1974
eka	-1975
▁Ho	-1976
kosa	-1977
laya	-1978
shana	-1979
tuadi	-1980
▁sude	-1981
▁Ahaza	-1982
sangane	-1983
▁mabele	-1984
▁mukoko	-1985
▁Lumingu	-1986
▁babikila	-1987
▁kapitene	-1988
nayi	-1989
pete	-1990
yabo	-1991
▁Ele	-1992
▁kuh	-1993
▁pan	-1994
adika	-1995
posto	-1996
▁bami	-1997
kelela	-1998
▁adibo	-1999
▁nsudi	-2000
postolo	-2001
sungidi	-2002
▁makole	-2003
▁muenyi	-2004
manyishe	-2005
▁diatshi	-2006
▁tshibawu	-2007
nde	-2008
fuba	-2009
pang	-2010
▁diyi	-2011
▁nawu	-2012
tshile	-2013
▁buaku	-2014
▁kuasa	-2015
▁kayiyi	-2016
▁kuakadi	-2017
▁kusomba	-2018
▁mikandu	-2019
▁mutumba	-2020
▁wakatangila	-2021
tre	-2022
ûle	-2023
▁nt	-2024
unde	-2025
unvu	-2026
shona	-2027
ulula	-2028
▁Dina	-2029
▁Hana	-2030
▁dîyi	-2031
▁hanu	-2032
buesha	-2033
▁Muaba	-2034
▁neadi	-2035
▁nuaka	-2036
▁yônso	-2037
enzesha	-2038
sumuinu	-2039
▁Gilada	-2040
▁mujima	-2041
▁tukese	-2042
muambila	-2043
▁lupemba	-2044
▁muelelu	-2045
▁tshibui	-2046
tombokela	-2047
▁mukenshi	-2048
▁kukumbaja	-2049
▁bakadisangisha	-2050
vene	-2051
abala	-2052
banga	-2053
▁Esau	-2054
▁Gibe	-2055
▁bibu	-2056
▁inai	-2057
▁wela	-2058
ambidi	-2059
ambule	-2060
yemena	-2061
▁umona	-2062
▁Elisha	-2063
tumikile	-2064
▁kadiena	-2065
▁muibidi	-2066
▁buatshia	-2067
▁ushikama	-2068
▁bukookeshi	-2069
▁wakamukonka	-2070
ia	-2071
▁an	-2072
dila	-2073
kuny	-2074
lese	-2075
pinga	-2076
▁mike	-2077
butula	-2078
▁halua	-2079
tengula	-2080
▁Kabena	-2081
▁Matuku	-2082
▁kuhita	-2083
▁muhuya	-2084
▁nyunyi	-2085
▁pikala	-2086
▁wakanu	-2087
▁tshimanyinu	-2088
alu	-2089
mpu	-2090
▁Pi	-2091
▁Dan	-2092
mpala	-2093
tanta	-2094
▁Mutu	-2095
▁Pela	-2096
kumbana	-2097
shafata	-2098
▁lukita	-2099
▁mudibo	-2100
▁Danyele	-2101
▁diyisha	-2102
▁kabiena	-2103
▁luevene	-2104
▁tshiole	-2105
▁Hakunvua	-2106
▁kuvuisha	-2107
▁kukokesha	-2108
▁wakangambila	-2109
eja	-2110
teta	-2111
▁kwa	-2112
ambue	-2113
bombo	-2114
huola	-2115
nyika	-2116
▁Netu	-2117
▁dihe	-2118
▁undi	-2119
lombola	-2120
▁muenze	-2121
▁ngumbu	-2122
▁buatshi	-2123
▁kushiha	-2124
▁ntambue	-2125
▁bimpanga	-2126
▁wakamona	-2127
▁bakashiha	-2128
▁kulumbulula	-2129
fw	-2130
edi	-2131
ger	-2132
sui	-2133
kuta	-2134
onda	-2135
zaka	-2136
▁lwa	-2137
▁uye	-2138
▁Gada	-2139
▁Hebe	-2140
▁Esawu	-2141
▁neaku	-2142
▁bakese	-2143
▁dijima	-2144
▁mbualu	-2145
itabushe	-2146
▁bukuabo	-2147
▁kulonda	-2148
▁matshika	-2149
▁tshilota	-2150
▁Bakelenge	-2151
▁nengikale	-2152
▁Mbulamatadi	-2153
▁Yehoshafata	-2154
hang	-2155
vulu	-2156
▁Diba	-2157
▁Midi	-2158
▁disu	-2159
falese	-2160
tukila	-2161
▁biuma	-2162
▁kapia	-2163
▁Buonso	-2164
▁wesete	-2165
sambombu	-2166
shikisha	-2167
sangakena	-2168
▁wakalala	-2169
▁ditekemena	-2170
bwa	-2171
bela	-2172
fidi	-2173
zala	-2174
▁Mpi	-2175
▁Neb	-2176
▁efo	-2177
hinga	-2178
mbabo	-2179
▁Katu	-2180
▁bayi	-2181
lualua	-2182
tumine	-2183
▁binai	-2184
▁dietu	-2185
▁udiye	-2186
▁binudi	-2187
▁maloba	-2188
▁wikala	-2189
kengeshe	-2190
▁Shekeme	-2191
▁bikuabu	-2192
▁mpindiu	-2193
▁wakimana	-2194
tshiamakane	-2195
zâ	-2196
▁Â	-2197
lwi	-2198
îdi	-2199
hone	-2200
jiki	-2201
▁Nea	-2202
▁Neu	-2203
leshe	-2204
tshin	-2205
tuala	-2206
weena	-2207
▁Elea	-2208
▁bang	-2209
▁mabo	-2210
buebue	-2211
jidile	-2212
keluba	-2213
▁ngabu	-2214
▁nyoka	-2215
▁mpenge	-2216
▁munudi	-2217
▁tshiku	-2218
kuatshile	-2219
vudishila	-2220
▁tshilema	-2221
▁tupitene	-2222
▁wakatamba	-2223
kû	-2224
kai	-2225
bele	-2226
diki	-2227
lule	-2228
sela	-2229
▁lin	-2230
benga	-2231
disha	-2232
ebeka	-2233
▁Abin	-2234
▁biwa	-2235
▁dibu	-2236
▁mika	-2237
dimuke	-2238
mikila	-2239
semena	-2240
▁difuma	-2241
▁ngamba	-2242
tendekena	-2243
▁Hebelone	-2244
▁Katataka	-2245
▁tshionsu	-2246
▁tshitalu	-2247
▁netshikale	-2248
▁tshibangidilu	-2249
▁Mâ	-2250
tama	-2251
▁Kul	-2252
luela	-2253
mbela	-2254
shela	-2255
▁Mula	-2256
▁dipa	-2257
▁Amole	-2258
▁miele	-2259
▁nsuki	-2260
▁Bukole	-2261
▁Nakadi	-2262
▁kunvua	-2263
sankishe	-2264
kanunuina	-2265
▁Mutshima	-2266
▁butshika	-2267
▁kubambila	-2268
▁Tshibambalu	-2269
mama	-2270
ondu	-2271
akaja	-2272
angan	-2273
landa	-2274
▁Kasa	-2275
▁Yehu	-2276
▁kalu	-2277
denesâ	-2278
sungule	-2279
▁Lubena	-2280
▁Nebuka	-2281
▁mulele	-2282
▁tshiko	-2283
manyishi	-2284
▁Abalama	-2285
▁bakuabu	-2286
▁banjelo	-2287
▁bushuwa	-2288
▁nshingu	-2289
▁tshiota	-2290
▁kukudimu	-2291
▁lujalame	-2292
▁pankatshi	-2293
lan	-2294
dona	-2295
hula	-2296
kina	-2297
loho	-2298
tabe	-2299
vule	-2300
yena	-2301
▁bay	-2302
▁uku	-2303
▁yai	-2304
kandi	-2305
▁Neng	-2306
▁bafu	-2307
▁yabi	-2308
hikula	-2309
▁banze	-2310
tabushi	-2311
▁batanu	-2312
▁mukaba	-2313
hingisha	-2314
▁kabuena	-2315
▁tshiaku	-2316
▁Bienzedi	-2317
▁luhehele	-2318
▁nkayende	-2319
mw	-2320
▁An	-2321
fute	-2322
ongu	-2323
▁Ala	-2324
▁Nga	-2325
funde	-2326
handi	-2327
kunzu	-2328
shiki	-2329
huahua	-2330
luishe	-2331
▁Siona	-2332
▁biabu	-2333
pingana	-2334
▁Abrame	-2335
▁Kabidi	-2336
▁midima	-2337
▁bashala	-2338
pangadika	-2339
▁Bafalese	-2340
▁bikaleye	-2341
▁Mukalenga	-2342
▁kushikama	-2343
▁Nebukadenesâ	-2344
bâ	-2345
zê	-2346
shî	-2347
▁Te	-2348
bile	-2349
hana	-2350
keye	-2351
lima	-2352
▁Yai	-2353
hesha	-2354
lendu	-2355
lwilu	-2356
ngala	-2357
ngula	-2358
▁Kudi	-2359
fuisha	-2360
▁muhia	-2361
handuka	-2362
pingane	-2363
▁Eleazâ	-2364
▁Mpindi	-2365
▁minene	-2366
▁mudiye	-2367
tumbishe	-2368
▁dilonga	-2369
▁mushale	-2370
▁tshibidi	-2371
▁wakatshi	-2372
lumbuluisha	-2373
▁bakahingana	-2374
▁kabakamanya	-2375
▁wakabakonka	-2376
tai	-2377
▁Hu	-2378
leba	-2379
leng	-2380
osha	-2381
▁Ebu	-2382
▁mub	-2383
luate	-2384
▁habo	-2385
▁kung	-2386
▁udia	-2387
▁Abinê	-2388
▁benji	-2389
▁minda	-2390
eyemena	-2391
shihela	-2392
▁bimane	-2393
▁ditutu	-2394
▁kabiyi	-2395
▁kuenda	-2396
▁makane	-2397
sakidile	-2398
▁Wambile	-2399
▁luakadi	-2400
▁luhangu	-2401
▁lukuabo	-2402
▁mutshiamakane	-2403
dre	-2404
iya	-2405
owe	-2406
asha	-2407
fofo	-2408
koka	-2409
kâya	-2410
shai	-2411
tabo	-2412
tila	-2413
yana	-2414
▁ung	-2415
luila	-2416
▁Amen	-2417
▁Palo	-2418
▁bika	-2419
▁mako	-2420
▁wabu	-2421
▁muetu	-2422
▁mukaj	-2423
ikaleye	-2424
▁Unvuai	-2425
▁nebanu	-2426
▁ngondu	-2427
ambileye	-2428
▁kulomba	-2429
kunzubile	-2430
▁kabakadi	-2431
▁kubikila	-2432
▁lubuebue	-2433
▁nkayanyi	-2434
▁tshisatu	-2435
▁bakangata	-2436
▁witabusha	-2437
▁Mutuangaji	-2438
▁wakaluhuka	-2439
▁Hakatangila	-2440
▁mbulamatadi	-2441
▁wakakudimuna	-2442
ame	-2443
obu	-2444
▁Li	-2445
anka	-2446
anze	-2447
habo	-2448
hila	-2449
lolu	-2450
onji	-2451
yoyo	-2452
demon	-2453
emeka	-2454
monyi	-2455
▁dibo	-2456
▁Bafue	-2457
▁mukau	-2458
▁Galela	-2459
▁bahele	-2460
▁bubidi	-2461
▁dikasa	-2462
▁kayena	-2463
▁luanyi	-2464
▁wakasa	-2465
▁Balaame	-2466
▁bubanji	-2467
▁matamba	-2468
▁neafile	-2469
▁bakumuka	-2470
▁kulambula	-2471
▁nsongalume	-2472
▁wakamuebesha	-2473
ssa	-2474
▁kû	-2475
▁mo	-2476
bale	-2477
mata	-2478
mota	-2479
toto	-2480
▁Anu	-2481
▁Shu	-2482
▁diu	-2483
dibue	-2484
hambu	-2485
handa	-2486
hongo	-2487
lueye	-2488
santo	-2489
▁Dana	-2490
fuanyi	-2491
teleja	-2492
▁Kongu	-2493
▁anayi	-2494
▁bônso	-2495
▁mfumu	-2496
▁munwa	-2497
kebesha	-2498
▁Kasada	-2499
▁Labane	-2500
▁biseba	-2501
▁dionsu	-2502
▁mifuba	-2503
▁mukese	-2504
▁tshiyi	-2505
nyampala	-2506
shangana	-2507
▁buitshi	-2508
▁matunga	-2509
▁mulongo	-2510
▁tshiona	-2511
▁wakamana	-2512
▁bimanyinu	-2513
▁wakashala	-2514
▁kuditshiha	-2515
▁wakasungula	-2516
tê	-2517
▁Zi	-2518
bote	-2519
dada	-2520
hete	-2521
kola	-2522
mita	-2523
taha	-2524
▁nfi	-2525
henda	-2526
kosha	-2527
kwabo	-2528
▁Anga	-2529
▁hawa	-2530
▁tume	-2531
patule	-2532
ssager	-2533
▁Mulau	-2534
▁divua	-2535
▁kuetu	-2536
▁udibu	-2537
▁utshi	-2538
buelela	-2539
kenzabo	-2540
tshiabu	-2541
▁munshi	-2542
▁munwam	-2543
elangana	-2544
▁Katuena	-2545
▁buikale	-2546
▁kuitaba	-2547
▁kumusha	-2548
▁lubombo	-2549
▁muimane	-2550
▁tuakadi	-2551
yunguluke	-2552
▁Tangilai	-2553
▁wakamukudimuna	-2554
nua	-2555
nvu	-2556
▁To	-2557
dana	-2558
▁Uzi	-2559
▁dib	-2560
wikala	-2561
▁Yishe	-2562
▁panyi	-2563
fikisha	-2564
langala	-2565
yangana	-2566
▁bakeba	-2567
▁bujima	-2568
▁dikale	-2569
▁mibidi	-2570
▁mvinyo	-2571
▁nuenza	-2572
huekesha	-2573
▁Mukanda	-2574
▁mafunda	-2575
▁milongo	-2576
▁utshidi	-2577
vulangana	-2578
▁Hakahita	-2579
▁tshidiidi	-2580
▁se	-2581
daba	-2582
nisi	-2583
seka	-2584
wena	-2585
▁Ana	-2586
▁nei	-2587
▁yau	-2588
desha	-2589
haula	-2590
ngulu	-2591
▁Mena	-2592
▁baya	-2593
fwanka	-2594
jimina	-2595
▁benze	-2596
▁lumue	-2597
▁nzala	-2598
kengela	-2599
ngikala	-2600
▁kakese	-2601
▁kupeta	-2602
▁madilu	-2603
▁mupika	-2604
▁tshipu	-2605
▁watshi	-2606
▁dihembu	-2607
▁mionshi	-2608
▁bulengele	-2609
▁bakaluhuka	-2610
▁kusangakena	-2611
nge	-2612
liba	-2613
tulu	-2614
▁Noa	-2615
▁kau	-2616
mbana	-2617
▁Kumu	-2618
▁Pila	-2619
▁Sara	-2620
▁Sede	-2621
▁ende	-2622
enzeka	-2623
jikija	-2624
mikidi	-2625
▁bindi	-2626
▁disua	-2627
▁kanui	-2628
▁ukeba	-2629
▁yende	-2630
hangidi	-2631
kokeshe	-2632
▁Simona	-2633
▁kulala	-2634
▁lufuila	-2635
▁mikanda	-2636
▁pambidi	-2637
▁wambila	-2638
▁Midiyana	-2639
▁Muakuidi	-2640
▁Sedekiya	-2641
▁tshitoke	-2642
▁tshitekelu	-2643
▁dijingulula	-2644
▁baminyampala	-2645
▁munwamfwanka	-2646
pie	-2647
goga	-2648
▁Edi	-2649
▁Eke	-2650
▁Ngo	-2651
anabu	-2652
kenka	-2653
sheba	-2654
▁Budi	-2655
▁Sude	-2656
▁meyi	-2657
▁nean	-2658
▁panu	-2659
fatale	-2660
▁nemmu	-2661
▁nkaya	-2662
▁unudi	-2663
▁unvua	-2664
ledibua	-2665
▁Zekâya	-2666
▁butaka	-2667
▁dikima	-2668
bandisha	-2669
▁Yoshiya	-2670
▁bamfumu	-2671
▁mikuabu	-2672
▁Hakadiye	-2673
▁ditshina	-2674
▁muakamba	-2675
▁tshibilu	-2676
▁tshijima	-2677
▁tshibumba	-2678
▁Kulondolola	-2679
▁bilondeshile	-2680
lw	-2681
▁Au	-2682
▁Du	-2683
labo	-2684
leka	-2685
soso	-2686
▁Bun	-2687
▁Kui	-2688
▁lun	-2689
▁ndu	-2690
▁ntu	-2691
hingu	-2692
mesha	-2693
▁mabe	-2694
bulula	-2695
▁kuaku	-2696
▁mbana	-2697
▁tshiu	-2698
▁udiku	-2699
dambula	-2700
fundabo	-2701
manyika	-2702
miamine	-2703
tshishe	-2704
▁Yeleko	-2705
▁bafila	-2706
▁buende	-2707
▁kakuyi	-2708
▁kukeba	-2709
▁nsengu	-2710
nisitila	-2711
shihibue	-2712
▁kukuata	-2713
▁munanga	-2714
vudishile	-2715
▁Nafatale	-2716
▁mahuahua	-2717
▁Tshisamba	-2718
▁bakokeshi	-2719
▁mpindiewu	-2720
▁mukokeshi	-2721
▁bakamujika	-2722
▁diakalenga	-2723
▁diatshimue	-2724
tangilangane	-2725
▁tshifuanyikishi	-2726
▁:	-2727
▁;	-2728
elu	-2729
end	-2730
▁Ra	-2731
mune	-2732
▁Ese	-2733
▁Utu	-2734
▁bih	-2735
▁nta	-2736
hiana	-2737
kanka	-2738
lanta	-2739
unvua	-2740
▁Enza	-2741
banshi	-2742
hetula	-2743
▁Amasa	-2744
▁Kuena	-2745
▁Tuaku	-2746
▁bundi	-2747
▁diabu	-2748
▁luidi	-2749
▁neabi	-2750
▁Kabadi	-2751
▁Labana	-2752
▁bukese	-2753
▁kukala	-2754
▁kutuma	-2755
▁maboko	-2756
▁maminu	-2757
▁muambe	-2758
▁nakamu	-2759
▁nkunyi	-2760
hitshila	-2761
nuambila	-2762
▁luhanza	-2763
kitabusha	-2764
tendelele	-2765
▁Muanjelo	-2766
▁bakeluba	-2767
▁kutshina	-2768
▁ntalanta	-2769
▁mulangala	-2770
▁kuitabusha	-2771
▁bansongalume	-2772
ny	-2773
▁No	-2774
eyem	-2775
lika	-2776
▁Ada	-2777
bisha	-2778
deshe	-2779
lombe	-2780
longe	-2781
ntuma	-2782
shiba	-2783
tonda	-2784
▁Mayi	-2785
▁Yebu	-2786
▁kamu	-2787
▁kusu	-2788
▁mban	-2789
▁nebe	-2790
jimine	-2791
ngisha	-2792
nyinyi	-2793
sesuka	-2794
shinda	-2795
▁Amore	-2796
▁badia	-2797
▁kusua	-2798
▁kutua	-2799
▁nsuna	-2800
▁ntatu	-2801
anukila	-2802
fundila	-2803
ledibue	-2804
▁Angata	-2805
▁bakasa	-2806
▁bidiye	-2807
▁dikalu	-2808
▁tshihe	-2809
▁wakula	-2810
▁Bakuabo	-2811
▁basanto	-2812
▁lumingu	-2813
▁musambu	-2814
▁ulualua	-2815
▁tshiseba	-2816
▁wakadiku	-2817
longoluela	-2818
▁bitangila	-2819
▁muanabute	-2820
▁tshikunze	-2821
▁tshiendelu	-2822
▁Nakatangila	-2823
▁kujingulula	-2824
▁Go	-2825
leja	-2826
loke	-2827
mabo	-2828
▁Mai	-2829
▁Muo	-2830
▁Yar	-2831
▁bab	-2832
leeja	-2833
yishi	-2834
îdima	-2835
▁Biwa	-2836
▁Luai	-2837
▁Sala	-2838
lamate	-2839
▁Halua	-2840
▁Leban	-2841
▁hamue	-2842
▁neaba	-2843
▁ntete	-2844
dimusha	-2845
kukuila	-2846
tangidi	-2847
▁Nganyi	-2848
▁bushua	-2849
▁luonji	-2850
▁nuamba	-2851
sombuela	-2852
▁Bakalua	-2853
▁Yardene	-2854
▁basombe	-2855
▁luhingu	-2856
tentekedi	-2857
▁Hakafika	-2858
▁hakadibo	-2859
▁katshiyi	-2860
▁mashinde	-2861
▁menemene	-2862
▁bapostolo	-2863
▁nsunagoga	-2864
▁tshishiki	-2865
▁bisambombo	-2866
▁kutumikila	-2867
▁kulongolola	-2868
▁wakamueneka	-2869
lwa	-2870
hate	-2871
yabu	-2872
yota	-2873
▁Ebe	-2874
▁hua	-2875
▁Môde	-2876
▁buau	-2877
balabo	-2878
bikile	-2879
patuka	-2880
tshine	-2881
zakala	-2882
▁Bavua	-2883
▁Esetê	-2884
▁Wamba	-2885
▁balue	-2886
▁buabi	-2887
▁efoda	-2888
▁muine	-2889
▁neabu	-2890
kumbane	-2891
lambule	-2892
▁Hamana	-2893
▁Pilato	-2894
▁Satana	-2895
▁Yoasha	-2896
▁buanda	-2897
▁bunudi	-2898
▁kulama	-2899
▁lupetu	-2900
▁muinda	-2901
▁tshisu	-2902
kunvuabo	-2903
▁Môdekai	-2904
▁bakafua	-2905
▁kuenzela	-2906
▁messager	-2907
▁muanende	-2908
▁tshikale	-2909
▁tshilele	-2910
▁utangila	-2911
▁wakajuka	-2912
▁wakahueka	-2913
▁wakebesha	-2914
▁kukudimuna	-2915
▁muakambila	-2916
▁tshikowelu	-2917
▁tshinyangu	-2918
▁bakamukonka	-2919
▁kulondolola	-2920
lio	-2921
oka	-2922
una	-2923
▁De	-2924
loka	-2925
lâma	-2926
mamw	-2927
saba	-2928
▁Mbi	-2929
idika	-2930
ishai	-2931
songu	-2932
▁Binu	-2933
▁Helo	-2934
▁Hiti	-2935
▁Malia	-2936
▁banai	-2937
▁buabu	-2938
▁neatu	-2939
▁nendu	-2940
▁tuabo	-2941
▁wakau	-2942
jimisha	-2943
▁Belâma	-2944
▁Pelata	-2945
▁buanga	-2946
▁dilolu	-2947
▁kawena	-2948
▁mulayi	-2949
▁mîdima	-2950
▁tuhita	-2951
▁Hakalua	-2952
▁bakatua	-2953
▁dikisha	-2954
▁kuakula	-2955
▁mukuenu	-2956
▁musungu	-2957
▁nkambua	-2958
▁tshienu	-2959
▁Hakadibo	-2960
▁Yehoyada	-2961
▁baluishi	-2962
▁makelela	-2963
▁minyinyi	-2964
▁tshimuna	-2965
▁wakafila	-2966
▁wakamuha	-2967
▁Bukokeshi	-2968
▁bakatamba	-2969
▁nenumanye	-2970
ayi	-2971
tio	-2972
▁bl	-2973
daya	-2974
▁Efe	-2975
▁Kun	-2976
▁nui	-2977
ntaka	-2978
sambi	-2979
▁bina	-2980
▁haku	-2981
▁kilo	-2982
▁mata	-2983
kokedi	-2984
▁Binua	-2985
▁Nyama	-2986
▁anudi	-2987
▁nkaye	-2988
▁ufila	-2989
miamina	-2990
tangadi	-2991
▁Rakele	-2992
▁diboko	-2993
▁mikole	-2994
▁miloho	-2995
▁yatshi	-2996
kudimune	-2997
shikishe	-2998
▁Yishema	-2999
▁bafundi	-3000
▁biakane	-3001
▁kuimana	-3002
▁muakuny	-3003
▁nebalue	-3004
songakaji	-3005
▁Lebanona	-3006
▁bakadila	-3007
▁kuoshila	-3008
▁muakenza	-3009
kanuambila	-3010
▁lusumuinu	-3011
▁wakumusha	-3012
▁Tshibangidilu	-3013
ata	-3014
aban	-3015
heme	-3016
onyi	-3017
yime	-3018
▁Umu	-3019
▁wau	-3020
abela	-3021
bombi	-3022
kasha	-3023
tonto	-3024
▁Gide	-3025
▁Panu	-3026
▁dinu	-3027
▁kufu	-3028
▁miku	-3029
▁mubu	-3030
abuela	-3031
▁Nasha	-3032
▁idibo	-3033
▁mihia	-3034
huekele	-3035
kumbaje	-3036
▁Bayidi	-3037
▁kamama	-3038
▁kuonso	-3039
▁lunene	-3040
▁mikete	-3041
▁mpunde	-3042
▁neafue	-3043
▁nebaku	-3044
▁ngenza	-3045
▁wakidi	-3046
muangala	-3047
▁Bashana	-3048
▁kuakane	-3049
▁mushihi	-3050
▁panyima	-3051
longolole	-3052
▁bakimana	-3053
▁batshidi	-3054
▁tshifufu	-3055
▁tshihuhu	-3056
▁kakuakadi	-3057
▁mukuatshi	-3058
▁wakabanda	-3059
▁Beteleheme	-3060
▁batuangaji	-3061
▁disangisha	-3062
▁Hakatshiabu	-3063
▁nakatangila	-3064
▁J	-3065
twa	-3066
leta	-3067
sele	-3068
yata	-3069
▁Tua	-3070
▁die	-3071
▁kab	-3072
▁mat	-3073
▁mia	-3074
bangu	-3075
enese	-3076
lengu	-3077
teeka	-3078
▁Dama	-3079
▁Mela	-3080
▁Nowa	-3081
▁Uvua	-3082
▁mafu	-3083
▁mate	-3084
▁mûdi	-3085
▁tuku	-3086
patula	-3087
▁akamu	-3088
▁luabo	-3089
▁nkata	-3090
koleshe	-3091
tomboka	-3092
▁Natana	-3093
▁bimana	-3094
▁buenza	-3095
▁kujika	-3096
▁mulale	-3097
▁mulaye	-3098
▁Amaleka	-3099
▁muisatu	-3100
lengulula	-3101
▁Bakumuka	-3102
▁Shimeona	-3103
▁bakunvua	-3104
▁mbalanda	-3105
▁nedikale	-3106
▁tshivulu	-3107
ambuluishe	-3108
▁bakanyema	-3109
▁binuikala	-3110
▁nebamanye	-3111
▁wakamanya	-3112
▁Yishemaele	-3113
▁kumanyisha	-3114
▁bishimikidi	-3115
mv	-3116
isa	-3117
▁Eb	-3118
▁Sh	-3119
▁cè	-3120
▁in	-3121
bona	-3122
doma	-3123
ibua	-3124
kuba	-3125
kume	-3126
rame	-3127
wabe	-3128
zare	-3129
ûngi	-3130
▁Aka	-3131
▁Nsu	-3132
▁aye	-3133
▁blé	-3134
ilama	-3135
sangi	-3136
shobo	-3137
yengi	-3138
▁Make	-3139
▁Mesu	-3140
▁hebe	-3141
▁Bonso	-3142
▁Ebelu	-3143
▁banya	-3144
▁cèdre	-3145
▁kaayi	-3146
▁miaku	-3147
▁uhita	-3148
dangana	-3149
kangana	-3150
▁Mowabe	-3151
▁Wakadi	-3152
▁Yebuse	-3153
▁kabalu	-3154
▁kahita	-3155
▁kubala	-3156
▁kudila	-3157
▁majitu	-3158
▁makuta	-3159
▁misulu	-3160
▁nsambu	-3161
anangane	-3162
tshimika	-3163
▁Disanka	-3164
▁Elazare	-3165
▁banfumu	-3166
▁bifunda	-3167
▁bivualu	-3168
▁muonshi	-3169
▁tangila	-3170
buikidila	-3171
kandamuna	-3172
▁Tshimamw	-3173
▁tshikena	-3174
luatshisha	-3175
manyishilu	-3176
▁nkuambila	-3177
▁kumuambila	-3178
▁mumuambile	-3179
▁tshibambalu	-3180
ur	-3181
▁bw	-3182
huke	-3183
▁Aza	-3184
▁Mei	-3185
▁Nem	-3186
kenke	-3187
kuama	-3188
suike	-3189
▁Bene	-3190
▁nkon	-3191
▁nuye	-3192
buluna	-3193
▁Shema	-3194
▁Shimi	-3195
▁dindi	-3196
▁kunfu	-3197
▁maalu	-3198
▁mpuka	-3199
▁muabu	-3200
▁nentu	-3201
▁ulala	-3202
abutula	-3203
tenteka	-3204
yanguka	-3205
▁Balaka	-3206
▁Genese	-3207
▁Helode	-3208
▁Sodoma	-3209
▁Yishai	-3210
▁bakole	-3211
▁bupika	-3212
▁kunowa	-3213
▁mufume	-3214
▁nebabi	-3215
▁nuenze	-3216
▁wakayi	-3217
▁bakadia	-3218
▁ditamba	-3219
▁kanuaku	-3220
▁kusanka	-3221
▁lupangu	-3222
▁tshindi	-3223
tatshisha	-3224
▁Damaseke	-3225
▁Zebuluna	-3226
▁kanuenji	-3227
▁neangate	-3228
▁tshidiye	-3229
angatshile	-3230
mbilangana	-3231
▁bakabuela	-3232
▁bakamanya	-3233
▁mukajende	-3234
▁tshiowelu	-3235
▁Shimishona	-3236
▁dipatukila	-3237
▁tshihiminu	-3238
▁tshikokedi	-3239
▁tshibuikilu	-3240
▁bilondeshila	-3241
▁dikuatshisha	-3242
▁wakatendelela	-3243
ili	-3244
âla	-3245
▁Ni	-3246
bule	-3247
doka	-3248
heze	-3249
pata	-3250
vuwe	-3251
yaya	-3252
luabo	-3253
nanga	-3254
ndila	-3255
▁Bika	-3256
▁Mila	-3257
▁bala	-3258
▁hetu	-3259
▁mile	-3260
▁nayi	-3261
▁nuba	-3262
▁nutu	-3263
nvuila	-3264
▁Kaisa	-3265
▁Munyi	-3266
▁Nuaku	-3267
▁bakun	-3268
▁kaena	-3269
▁mualu	-3270
▁munga	-3271
▁unvue	-3272
▁Lakele	-3273
▁Rebeka	-3274
▁Sidona	-3275
▁budimu	-3276
▁kanudi	-3277
▁lukuka	-3278
▁mbantu	-3279
▁mikata	-3280
▁muhele	-3281
▁mukala	-3282
▁padiye	-3283
sunguila	-3284
tahulula	-3285
▁Bakuidi	-3286
▁dikombu	-3287
▁kubanda	-3288
▁kubenga	-3289
▁mumanyi	-3290
▁tshiina	-3291
▁malelela	-3292
▁tshifike	-3293
▁ubambile	-3294
hangidisha	-3295
songakashi	-3296
▁Mpindiewu	-3297
▁kukobolola	-3298
▁kusakidila	-3299
rne	-3300
▁Ai	-3301
heye	-3302
kaja	-3303
nabo	-3304
tiza	-3305
toba	-3306
tudi	-3307
yang	-3308
▁uyi	-3309
▁enza	-3310
▁nemu	-3311
▁tunu	-3312
anjile	-3313
bikidi	-3314
habama	-3315
kebela	-3316
kimana	-3317
lwisha	-3318
moneye	-3319
sabata	-3320
tekela	-3321
▁kanua	-3322
▁neban	-3323
▁nfigi	-3324
▁nulue	-3325
▁nyeye	-3326
bangeye	-3327
botesha	-3328
yanguke	-3329
▁Mbimpe	-3330
▁Sadoka	-3331
▁Sinayi	-3332
▁Yeheze	-3333
▁kabuyi	-3334
▁kadiyi	-3335
▁kalolo	-3336
▁nebaba	-3337
▁ubuela	-3338
anganabo	-3339
▁Ahazaya	-3340
▁Gideona	-3341
▁Menashe	-3342
▁Mulambu	-3343
▁bademon	-3344
▁bamanyi	-3345
▁tuikale	-3346
▁wakatua	-3347
▁wakulua	-3348
▁Lehabama	-3349
▁bakafila	-3350
▁neyikale	-3351
▁ntshinyi	-3352
▁tshisuku	-3353
▁wakunvua	-3354
angatshila	-3355
▁bakashala	-3356
▁batangile	-3357
▁kunfudilu	-3358
▁makelenge	-3359
▁Yehezekele	-3360
▁wakasangisha	-3361
▁balumbuluishi	-3362
mâ	-3363
ên	-3364
emu	-3365
▁Ju	-3366
dile	-3367
fele	-3368
gala	-3369
lole	-3370
sepa	-3371
▁Tun	-3372
▁ubu	-3373
eleye	-3374
manda	-3375
▁Adon	-3376
▁Yize	-3377
▁base	-3378
▁bûdi	-3379
▁diau	-3380
▁kula	-3381
▁lule	-3382
badika	-3383
lamika	-3384
muangi	-3385
▁Gibea	-3386
▁Hanua	-3387
▁Umuka	-3388
▁inudi	-3389
▁mbuku	-3390
anabute	-3391
anyisha	-3392
dambule	-3393
hungidi	-3394
wangana	-3395
▁Kanana	-3396
▁Kuhita	-3397
▁Yudaya	-3398
▁diyoyo	-3399
▁hakamu	-3400
▁hatshi	-3401
▁lutulu	-3402
▁muanji	-3403
▁muhote	-3404
▁mununu	-3405
▁nakaba	-3406
▁talala	-3407
▁tshilu	-3408
▁tuandi	-3409
▁tubidi	-3410
▁ulenga	-3411
eyemenyi	-3412
▁Milambu	-3413
▁balunda	-3414
▁bobumue	-3415
▁milonda	-3416
▁nakamba	-3417
▁nuakadi	-3418
tendeledi	-3419
▁Yizelele	-3420
▁bakafika	-3421
▁bitekelu	-3422
▁hakatshi	-3423
▁kujidila	-3424
▁kujikija	-3425
▁tshifulu	-3426
▁wakabaha	-3427
▁wakuamba	-3428
shikaminyi	-3429
▁musungule	-3430
▁busangisha	-3431
▁kushikisha	-3432
▁bakaluangana	-3433
▁tshimanyishilu	-3434
DI	-3435
tâ	-3436
▁d	-3437
asa	-3438
bio	-3439
ehu	-3440
leu	-3441
lin	-3442
ule	-3443
yua	-3444
ande	-3445
endi	-3446
fana	-3447
feta	-3448
hasa	-3449
menu	-3450
mote	-3451
tuha	-3452
yeme	-3453
zela	-3454
▁Bak	-3455
hiane	-3456
ilipo	-3457
linto	-3458
shipa	-3459
telon	-3460
▁Eshe	-3461
▁Lote	-3462
▁Lufu	-3463
▁mûle	-3464
▁ufua	-3465
▁ulue	-3466
▁yaku	-3467
yukula	-3468
▁Alabâ	-3469
▁Mushi	-3470
▁balua	-3471
▁banua	-3472
▁biadi	-3473
▁buobu	-3474
▁kuenz	-3475
▁kuvua	-3476
▁mvula	-3477
▁tshie	-3478
ngalala	-3479
sambuka	-3480
▁Filipo	-3481
▁Hakamu	-3482
▁Kaleba	-3483
▁Kohata	-3484
▁bikulu	-3485
▁budiye	-3486
▁kuende	-3487
▁luonso	-3488
▁ndondo	-3489
▁tukanu	-3490
▁tumelo	-3491
▁uvuaye	-3492
angatshi	-3493
telonone	-3494
▁Gibeona	-3495
▁Kolinto	-3496
▁bivuabu	-3497
▁bivuaye	-3498
▁buhidia	-3499
▁dilomba	-3500
▁hakalua	-3501
▁muanenu	-3502
▁mulunda	-3503
▁nkayebe	-3504
▁nkutshi	-3505
▁tshiabu	-3506
▁utshina	-3507
kuatshika	-3508
matshisha	-3509
tontolola	-3510
vuishibua	-3511
▁hatshidi	-3512
▁tshimanu	-3513
▁tshisaka	-3514
▁wakafika	-3515
▁wakafuka	-3516
▁Witabushe	-3517
▁bakalonda	-3518
▁balombodi	-3519
▁bubotesha	-3520
▁wakuntuma	-3521
▁Dutelonone	-3522
▁bibutshilu	-3523
▁Bakamuambila	-3524
▁budishikaminyi	-3525
▁C	-3526
▁Bê	-3527
dala	-3528
jile	-3529
meli	-3530
pele	-3531
sode	-3532
soku	-3533
tata	-3534
tiji	-3535
yone	-3536
▁Kua	-3537
▁bau	-3538
▁mme	-3539
▁ndî	-3540
kondu	-3541
shiye	-3542
tampa	-3543
▁Leya	-3544
▁Selu	-3545
▁bako	-3546
▁bilu	-3547
▁bleu	-3548
▁buai	-3549
▁buta	-3550
▁kupi	-3551
▁nubi	-3552
▁nung	-3553
▁wako	-3554
lelabo	-3555
▁Hanan	-3556
▁Sheme	-3557
▁Sinai	-3558
▁luesu	-3559
▁metre	-3560
▁ngulu	-3561
kanyika	-3562
kuluila	-3563
nguluka	-3564
sangila	-3565
vudisha	-3566
▁Balake	-3567
▁Bumuka	-3568
▁Tshidi	-3569
▁ashale	-3570
▁badila	-3571
▁bapika	-3572
▁didibo	-3573
▁makese	-3574
▁masama	-3575
▁misesu	-3576
▁mpanza	-3577
▁mutoke	-3578
▁mutudi	-3579
▁ngenyi	-3580
▁utamba	-3581
▁wakabu	-3582
▁Amasaya	-3583
▁Bakenza	-3584
▁Butumbi	-3585
▁Ekesode	-3586
▁bashale	-3587
▁bikunze	-3588
▁bilongo	-3589
▁bilwilu	-3590
▁kutuadi	-3591
▁makunji	-3592
▁wakadia	-3593
▁wakasua	-3594
▁bakateka	-3595
▁buenzayi	-3596
▁muambile	-3597
ambuluisha	-3598
▁bakulumpe	-3599
▁katshiena	-3600
▁wakatumina	-3601
▁hakabangeye	-3602
▁wakasangana	-3603
▁wakitabusha	-3604
▁mishilangane	-3605
▁muakafundabo	-3606
▁tunkanunuina	-3607
▁é	-3608
bene	-3609
jike	-3610
shîa	-3611
vuba	-3612
▁Bay	-3613
▁Man	-3614
▁Nde	-3615
▁emu	-3616
▁mpe	-3617
▁nya	-3618
sanji	-3619
tambi	-3620
▁Bele	-3621
▁Gile	-3622
▁Lelu	-3623
▁kaya	-3624
▁kuhu	-3625
▁kâyi	-3626
▁mapa	-3627
▁tuye	-3628
butuka	-3629
diludi	-3630
enzeye	-3631
kanuha	-3632
lulame	-3633
mbusha	-3634
nyenga	-3635
sokoma	-3636
▁Muoyo	-3637
▁Shela	-3638
▁Uliya	-3639
▁bimbi	-3640
▁kauyi	-3641
▁kumon	-3642
▁neaye	-3643
▁nengi	-3644
▁nfumu	-3645
▁nyota	-3646
▁wenze	-3647
dangane	-3648
mbulula	-3649
tuadile	-3650
undisha	-3651
▁Benaya	-3652
▁Nshila	-3653
▁bafume	-3654
▁bilota	-3655
▁bimuma	-3656
▁buneme	-3657
▁diamba	-3658
▁mikalu	-3659
▁mitoke	-3660
▁mitoto	-3661
▁nendue	-3662
▁wakaku	-3663
kuambila	-3664
▁Kapangu	-3665
▁bihendu	-3666
▁lusengu	-3667
▁wakenda	-3668
lumbuludi	-3669
mvwangana	-3670
tentekela	-3671
▁Hakamona	-3672
▁bakabika	-3673
▁bakatuma	-3674
▁dibutuka	-3675
▁wakadila	-3676
▁bakabanga	-3677
▁bitabusha	-3678
▁kuikaleye	-3679
▁kusungila	-3680
▁yakakuata	-3681
▁wakahatuka	-3682
▁bakatangila	-3683
▁bitendelelu	-3684
▁tshibuikidi	-3685
▁Tshimamwenda	-3686
▁tshibutshilu	-3687
ca	-3688
zû	-3689
uni	-3690
▁Kî	-3691
▁Ru	-3692
▁lw	-3693
gamu	-3694
kaba	-3695
lana	-3696
▁Adi	-3697
▁Ahu	-3698
bande	-3699
itaba	-3700
mbule	-3701
olola	-3702
pembu	-3703
sunga	-3704
▁Kola	-3705
▁Lama	-3706
▁Mata	-3707
▁bihe	-3708
▁buku	-3709
▁dike	-3710
▁kamp	-3711
▁kana	-3712
▁kane	-3713
▁mela	-3714
▁umwe	-3715
abanda	-3716
butule	-3717
nemeka	-3718
▁Etshi	-3719
▁dinua	-3720
▁nendi	-3721
▁ufika	-3722
ishibue	-3723
kandika	-3724
▁Melali	-3725
▁Misepa	-3726
▁Rubene	-3727
▁Shimei	-3728
▁Yakobo	-3729
▁Yefeta	-3730
▁bakatu	-3731
▁bamone	-3732
▁bululu	-3733
▁bunvua	-3734
▁buonsu	-3735
▁kumvua	-3736
▁kuyabu	-3737
▁mikese	-3738
▁munemu	-3739
▁nebaye	-3740
▁nshobo	-3741
▁uvuabu	-3742
kudimuka	-3743
▁Bakamba	-3744
▁Muyishi	-3745
▁bambila	-3746
▁katshia	-3747
▁kulesha	-3748
▁kutamba	-3749
▁ndituku	-3750
sambakaja	-3751
tantamana	-3752
▁Dibadika	-3753
▁bioshelu	-3754
▁bisabata	-3755
▁kabakamu	-3756
▁kuambula	-3757
kuatshishe	-3758
▁kumushiha	-3759
▁nnuambila	-3760
▁wakakuata	-3761
▁wakalonda	-3762
▁bashihibue	-3763
▁buludiludi	-3764
▁makookeshi	-3765
sungulangana	-3766
▁kukuatshila	-3767
▁nebashikame	-3768
▁wakungambila	-3769
kia	-3770
lai	-3771
▁go	-3772
▁ko	-3773
▁no	-3774
▁yo	-3775
esha	-3776
hiku	-3777
kune	-3778
kunu	-3779
leha	-3780
mvue	-3781
▁mma	-3782
elele	-3783
hidie	-3784
kunde	-3785
mbaje	-3786
verne	-3787
▁Anyi	-3788
▁Mala	-3789
▁Tulo	-3790
▁alue	-3791
▁kute	-3792
▁nadi	-3793
▁neab	-3794
▁ngua	-3795
▁tumu	-3796
ambeye	-3797
fikulu	-3798
hatuke	-3799
tabala	-3800
▁Binya	-3801
▁Nsubu	-3802
▁Shilo	-3803
▁butue	-3804
▁mpoko	-3805
▁nenun	-3806
▁neumu	-3807
▁pamwe	-3808
▁pende	-3809
lombela	-3810
tangala	-3811
▁Bakaya	-3812
▁Bunene	-3813
▁Butuku	-3814
▁Kîyata	-3815
▁bidibu	-3816
▁bienza	-3817
▁bitalu	-3818
▁ditudi	-3819
▁gilada	-3820
▁kakamu	-3821
▁kasulu	-3822
▁kuyeye	-3823
▁ludimi	-3824
▁matutu	-3825
▁mudibu	-3826
▁munaku	-3827
▁ndanda	-3828
▁nebabu	-3829
▁nshiya	-3830
▁unvuai	-3831
fikuluke	-3832
shihibua	-3833
▁Bashela	-3834
▁Wakamba	-3835
▁dishiba	-3836
▁mulondo	-3837
▁musombe	-3838
▁ndekelu	-3839
▁tshinai	-3840
▁Nsumuinu	-3841
▁bakakema	-3842
▁bakamona	-3843
▁kubutula	-3844
▁mutshihu	-3845
▁Binyamine	-3846
▁Munkatshi	-3847
▁bingikala	-3848
▁kupingana	-3849
lumbuluishe	-3850
▁bakatshina	-3851
▁nsongakaji	-3852
▁batendelela	-3853
▁mapangadika	-3854
▁wakamuidika	-3855
▁tshivulukidi	-3856
▁wakaditshiha	-3857
▁wakalongolola	-3858
cia	-3859
nka	-3860
êna	-3861
▁Kâ	-3862
▁bâ	-3863
▁hi	-3864
▁mw	-3865
fiki	-3866
kang	-3867
ngan	-3868
sakâ	-3869
sosa	-3870
zulu	-3871
▁Aga	-3872
▁Uye	-3873
▁gou	-3874
donda	-3875
kanga	-3876
kenya	-3877
pandu	-3878
▁Efra	-3879
▁Gata	-3880
▁Hatu	-3881
▁Juka	-3882
▁Kora	-3883
▁Lota	-3884
▁biba	-3885
▁bine	-3886
▁bumu	-3887
▁dihu	-3888
▁dimu	-3889
▁henu	-3890
▁nuyi	-3891
▁tele	-3892
▁wadi	-3893
abanyi	-3894
fikeye	-3895
kunshi	-3896
lukila	-3897
monabo	-3898
oshile	-3899
sukule	-3900
▁Ezela	-3901
▁Mfumu	-3902
▁Nemba	-3903
▁Yehoa	-3904
▁bitua	-3905
▁inayi	-3906
▁nengu	-3907
▁tuebe	-3908
▁umvua	-3909
hambuka	-3910
kishilu	-3911
kumbaja	-3912
ngalata	-3913
sangilu	-3914
verneur	-3915
▁Bakulu	-3916
▁Lebeka	-3917
▁Mukalu	-3918
▁Timote	-3919
▁Yisakâ	-3920
▁bikese	-3921
▁dihila	-3922
▁disatu	-3923
▁kembua	-3924
▁kuheta	-3925
▁kupita	-3926
▁tshiau	-3927
▁wakabe	-3928
lengeshe	-3929
▁Dishiba	-3930
▁Mutambe	-3931
▁bayandi	-3932
▁bishale	-3933
▁kanuaka	-3934
▁kukonka	-3935
▁mushimi	-3936
▁neuvuwe	-3937
▁tshieya	-3938
▁Diambedi	-3939
▁Nudimuke	-3940
▁akenzeye	-3941
▁buobumue	-3942
▁tshitshu	-3943
▁ukokesha	-3944
▁wakayila	-3945
nyunguluke	-3946
tandangana	-3947
▁kumukonka	-3948
▁muakadiye	-3949
▁ungambila	-3950
eyemenyibua	-3951
▁Tshimuangi	-3952
▁butuangaji	-3953
▁kunuambila	-3954
▁Ndelanganyi	-3955
▁bamuanabute	-3956
▁bakasangisha	-3957
▁kuluanganabo	-3958
▁kueyemenyibua	-3959
ré	-3960
▁û	-3961
odi	-3962
▁de	-3963
▁gr	-3964
▁hu	-3965
anua	-3966
bole	-3967
idia	-3968
kene	-3969
yane	-3970
▁Lea	-3971
▁Oho	-3972
▁Uba	-3973
▁aha	-3974
▁nji	-3975
▁ûdi	-3976
kande	-3977
konke	-3978
meshe	-3979
misha	-3980
zenze	-3981
▁Ashê	-3982
▁Laba	-3983
▁Lomo	-3984
▁Numu	-3985
▁Sale	-3986
▁bûle	-3987
▁indi	-3988
▁meba	-3989
duluka	-3990
endela	-3991
engabo	-3992
hanana	-3993
tabale	-3994
teleje	-3995
tshipa	-3996
▁Asafa	-3997
▁Eleya	-3998
▁Nennu	-3999
▁Netan	-4000
▁Uziya	-4001
▁anaku	-4002
▁grena	-4003
▁ngolo	-4004
enjibue	-4005
fikishe	-4006
mbeleja	-4007
pingaja	-4008
▁Hamata	-4009
▁Mulume	-4010
▁Seluya	-4011
▁Sihona	-4012
▁babadi	-4013
▁bakayi	-4014
▁bilele	-4015
▁bitupa	-4016
▁diambu	-4017
▁dibaka	-4018
▁mikemu	-4019
▁nakanu	-4020
▁nguaka	-4021
angateye	-4022
buluibua	-4023
hingashe	-4024
shimbula	-4025
▁Shemaya	-4026
▁babuela	-4027
▁batuadi	-4028
▁bitambe	-4029
▁mashika	-4030
▁matumba	-4031
▁mpalata	-4032
▁muvuaye	-4033
▁nebafue	-4034
▁nkayabu	-4035
▁tshietu	-4036
▁tshimpe	-4037
▁batekete	-4038
▁buakuidi	-4039
▁itangila	-4040
▁kulekela	-4041
▁mamuende	-4042
▁nakunvua	-4043
▁tshikese	-4044
lumbuluidi	-4045
▁bakulumpa	-4046
▁bilengele	-4047
▁tshikuabu	-4048
▁wakenzela	-4049
▁Yehoyakima	-4050
▁kulengesha	-4051
▁batentekedi	-4052
▁bikunzubile	-4053
▁wakamushiha	-4054
tshintshimika	-4055
▁wakamulelela	-4056
no	-4057
dai	-4058
uta	-4059
▁Ek	-4060
▁Po	-4061
▁sa	-4062
fina	-4063
oaza	-4064
pate	-4065
tion	-4066
▁Eyo	-4067
▁Idi	-4068
▁aca	-4069
▁dis	-4070
▁ndo	-4071
anabo	-4072
dishi	-4073
heshe	-4074
hibua	-4075
kanza	-4076
mbane	-4077
sente	-4078
songo	-4079
sumbe	-4080
tuale	-4081
▁Bela	-4082
▁Hanu	-4083
▁Kana	-4084
▁Madi	-4085
▁bihi	-4086
▁dibi	-4087
▁maha	-4088
▁miko	-4089
▁momu	-4090
▁nelu	-4091
kadidi	-4092
yabala	-4093
yemene	-4094
▁Boaza	-4095
▁Dielu	-4096
▁Diulu	-4097
▁Wenze	-4098
▁baudi	-4099
▁dihia	-4100
▁mahia	-4101
▁mikon	-4102
▁ulama	-4103
▁unaku	-4104
lombele	-4105
sentedi	-4106
tengudi	-4107
unvuila	-4108
▁Gelika	-4109
▁Lamota	-4110
▁Matayo	-4111
▁Tshiji	-4112
▁acacia	-4113
▁badiku	-4114
▁bahote	-4115
▁bakabi	-4116
▁balala	-4117
▁balela	-4118
▁bateke	-4119
▁bimanu	-4120
▁bunaka	-4121
▁didiye	-4122
▁dikoba	-4123
▁dinudi	-4124
▁mbimpe	-4125
▁mimene	-4126
▁mufofo	-4127
▁mulela	-4128
▁muminu	-4129
▁muyidi	-4130
▁nakaku	-4131
▁neambe	-4132
▁tufina	-4133
kunvueye	-4134
shangane	-4135
sunguile	-4136
tshibula	-4137
▁Dikisha	-4138
▁Wangate	-4139
▁atshidi	-4140
▁balonda	-4141
▁dipembu	-4142
▁ekumona	-4143
▁kaluena	-4144
▁makuabu	-4145
▁munange	-4146
▁nebenze	-4147
▁nenudie	-4148
▁numanye	-4149
jadikibue	-4150
ngansunga	-4151
▁Gilegala	-4152
▁butekete	-4153
▁kuikisha	-4154
▁kuluisha	-4155
▁nakamona	-4156
▁ndongamu	-4157
▁tshikadi	-4158
▁ulambula	-4159
▁wakafuma	-4160
▁wakolola	-4161
konkangana	-4162
londangane	-4163
▁Bukelenge	-4164
▁Dielulula	-4165
▁Nenuikale	-4166
▁asambombu	-4167
▁batengula	-4168
▁bifukibue	-4169
▁dianyisha	-4170
▁kanuikadi	-4171
▁mulengele	-4172
▁netuikale	-4173
▁tshiakane	-4174
▁tshitamba	-4175
▁wendakana	-4176
kengeshibua	-4177
▁gouverneur	-4178
▁utendelela	-4179
▁bakitabusha	-4180
▁wakandamuna	-4181
▁kukuatshisha	-4182
▁kuntendelela	-4183
ima	-4184
pha	-4185
▁Tâ	-4186
fuen	-4187
fume	-4188
live	-4189
meke	-4190
mele	-4191
naba	-4192
time	-4193
wila	-4194
▁Ata	-4195
▁kâi	-4196
▁uha	-4197
dimbi	-4198
dishe	-4199
mbedi	-4200
oshea	-4201
shene	-4202
sonso	-4203
sueye	-4204
tiopa	-4205
▁Haku	-4206
▁Tele	-4207
▁Ulue	-4208
▁amba	-4209
▁bale	-4210
▁diji	-4211
▁kêna	-4212
▁miji	-4213
▁mvua	-4214
▁ndia	-4215
akasha	-4216
ladika	-4217
luhuke	-4218
nemeke	-4219
sonshi	-4220
▁Biaku	-4221
▁Bonsu	-4222
▁Heshe	-4223
▁Ngade	-4224
▁Nomba	-4225
▁adiye	-4226
▁banji	-4227
▁biudi	-4228
▁kunzû	-4229
▁manga	-4230
▁mupie	-4231
▁nenye	-4232
▁nkita	-4233
▁nudie	-4234
▁nuvua	-4235
▁utudi	-4236
andishe	-4237
endeshe	-4238
enjibua	-4239
jimishe	-4240
shiheye	-4241
tshishi	-4242
unvuile	-4243
▁Atiopa	-4244
▁Balume	-4245
▁Hoshea	-4246
▁Yeshua	-4247
▁Yotama	-4248
▁baledi	-4249
▁binene	-4250
▁bitaku	-4251
▁buhote	-4252
▁bulema	-4253
▁bweena	-4254
▁hahita	-4255
▁kabaku	-4256
▁katuyi	-4257
▁masoso	-4258
▁miendu	-4259
▁munaka	-4260
▁munupe	-4261
▁nakuku	-4262
▁padibu	-4263
tangisha	-4264
▁Abishai	-4265
▁Adoniya	-4266
▁Bisamba	-4267
▁Misangu	-4268
▁Yehoaza	-4269
▁Yoshuwa	-4270
▁dibanza	-4271
▁miakane	-4272
▁mimanye	-4273
▁mufundi	-4274
▁nenkuhe	-4275
▁wambile	-4276
tangilula	-4277
▁Efrayime	-4278
▁bakadiku	-4279
▁batshina	-4280
▁biwikala	-4281
▁musokoko	-4282
▁nsumuinu	-4283
▁tshibelu	-4284
▁ubambila	-4285
▁Hakashika	-4286
▁Musungidi	-4287
▁kuhingana	-4288
▁kunyemena	-4289
▁muledibue	-4290
▁tshipungu	-4291
▁wakanyema	-4292
▁Wakabikila	-4293
▁kukuambila	-4294
▁tshibidilu	-4295
▁busambakaja	-4296
▁kumonangana	-4297
▁diumvwangana	-4298
▁tshidikishilu	-4299
▁tshilumbuluidi	-4300
wo	-4301
mua	-4302
shû	-4303
vwa	-4304
▁Gê	-4305
▁Za	-4306
baha	-4307
band	-4308
fuki	-4309
hane	-4310
mike	-4311
rone	-4312
▁Iti	-4313
▁lub	-4314
▁she	-4315
donia	-4316
fueye	-4317
ndile	-4318
shone	-4319
tukua	-4320
▁Hawa	-4321
▁Hele	-4322
▁Hile	-4323
▁Naza	-4324
▁Nehe	-4325
▁alua	-4326
▁audi	-4327
▁bile	-4328
▁bimu	-4329
▁maji	-4330
▁mung	-4331
▁unua	-4332
nguila	-4333
nyanga	-4334
patuke	-4335
tekabo	-4336
yukule	-4337
▁Abiya	-4338
▁kavua	-4339
▁kuabu	-4340
▁kulwa	-4341
▁kumui	-4342
▁kunzu	-4343
▁muitu	-4344
▁sheba	-4345
▁ukadi	-4346
▁unuha	-4347
bandilu	-4348
endenda	-4349
mbikila	-4350
minyina	-4351
sombela	-4352
sombelu	-4353
tumibue	-4354
▁Ambila	-4355
▁Kanudi	-4356
▁Mitshi	-4357
▁Panudi	-4358
▁Wakamu	-4359
▁Yolama	-4360
▁bakaku	-4361
▁kikadi	-4362
▁kukosa	-4363
▁lwendu	-4364
▁mpangu	-4365
▁mumone	-4366
▁natshi	-4367
handisha	-4368
kanunuma	-4369
▁Bakashi	-4370
▁Nuikale	-4371
▁Shafana	-4372
▁bitamba	-4373
▁bukunze	-4374
▁dinfuen	-4375
▁grenade	-4376
▁kanungu	-4377
▁mabeshi	-4378
▁momumwe	-4379
kidikisha	-4380
▁Bikaleye	-4381
▁Hilekiya	-4382
▁Nazaleta	-4383
▁Nehemiya	-4384
▁bakahita	-4385
▁busokoka	-4386
▁hanakadi	-4387
nyunguluka	-4388
sungidibue	-4389
▁Bakambila	-4390
▁Hakambeye	-4391
▁Heshebona	-4392
▁Makedonia	-4393
▁Tshipangu	-4394
▁bakuatshi	-4395
▁balambula	-4396
▁butangila	-4397
▁wakabisha	-4398
▁wakahidia	-4399
lengeshibue	-4400
▁bakabalabo	-4401
▁bansentedi	-4402
▁bikayabala	-4403
▁kundambula	-4404
▁kungenzela	-4405
▁Tshihungidi	-4406
▁bakasangana	-4407
▁tshinfuanyi	-4408
▁wakabashiha	-4409
▁Tunkanunuina	-4410
▁baminisitila	-4411
▁dinfuenkenya	-4412
▁wakaluangana	-4413
▁bakalongolola	-4414
▁bifuanyikishi	-4415
▁tshibuikidiji	-4416
▁wakabandamuna	-4417
▁wakamuandamuna	-4418
ade	-4419
cré	-4420
eni	-4421
ole	-4422
sma	-4423
▁Ei	-4424
▁Fe	-4425
▁MU	-4426
beda	-4427
labe	-4428
lobo	-4429
nona	-4430
tete	-4431
tiki	-4432
yatâ	-4433
ànka	-4434
▁Sho	-4435
▁mwi	-4436
boshe	-4437
hamba	-4438
mbuke	-4439
sanki	-4440
shabu	-4441
shema	-4442
taire	-4443
vuaye	-4444
▁Bitu	-4445
▁Haza	-4446
▁Maki	-4447
▁Meji	-4448
▁Mâka	-4449
▁Mêyi	-4450
▁Umpe	-4451
▁boya	-4452
▁dima	-4453
▁mana	-4454
▁épha	-4455
bueshe	-4456
ilaade	-4457
lamatu	-4458
wakadi	-4459
▁Meshu	-4460
▁awaku	-4461
▁efode	-4462
▁idibu	-4463
▁kuowa	-4464
▁olive	-4465
▁secré	-4466
▁udila	-4467
buikile	-4468
handuke	-4469
mueneke	-4470
mushile	-4471
▁Bayuda	-4472
▁Bidimu	-4473
▁Bânaba	-4474
▁Dipita	-4475
▁Hilama	-4476
▁Muambi	-4477
▁Mudimu	-4478
▁bafile	-4479
▁banudi	-4480
▁bikena	-4481
▁bisosa	-4482
▁buteyi	-4483
▁dibika	-4484
▁didiku	-4485
▁disoso	-4486
▁divuba	-4487
▁kakole	-4488
▁makala	-4489
▁muenji	-4490
▁muhite	-4491
▁tshina	-4492
▁tuamba	-4493
▁ubanda	-4494
▁wakudi	-4495
▁wakung	-4496
anangana	-4497
kengeshi	-4498
▁Amenona	-4499
▁Ebeyatâ	-4500
▁Mpindiu	-4501
▁Mukuabo	-4502
▁Tshiaka	-4503
▁Tshiaku	-4504
▁diakabi	-4505
▁kufuila	-4506
▁kunanga	-4507
▁kushipa	-4508
▁kwikala	-4509
▁masanka	-4510
▁mishiha	-4511
▁musumba	-4512
▁mutanda	-4513
▁nentume	-4514
▁wakumpa	-4515
jadikibua	-4516
kanangane	-4517
tampakane	-4518
▁Kanuenji	-4519
▁Lewitiki	-4520
▁Madiyane	-4521
▁Ngilaade	-4522
▁Nuambile	-4523
▁Yeholama	-4524
▁bakakeba	-4525
▁kubutuka	-4526
▁neashihe	-4527
▁nengenze	-4528
▁tshinudi	-4529
▁tshitaku	-4530
▁umuehele	-4531
jinguluila	-4532
▁Bingikala	-4533
▁banyukula	-4534
▁disambuka	-4535
▁kakamanya	-4536
▁kuikalabo	-4537
▁mulombodi	-4538
▁nenjadike	-4539
▁wakafunda	-4540
tumbishibue	-4541
▁budikadidi	-4542
▁hakunvuabo	-4543
▁secrétaire	-4544
▁wakamuteka	-4545
▁wakatshina	-4546
▁bakasungula	-4547
▁bukunzubile	-4548
▁kakitabusha	-4549
▁wakakolesha	-4550
▁nkutendekena	-4551
AN	-4552
LA	-4553
SH	-4554
sê	-4555
ue	-4556
▁s	-4557
omi	-4558
▁DI	-4559
▁Nâ	-4560
▁Re	-4561
dade	-4562
hung	-4563
kedi	-4564
lati	-4565
puka	-4566
salu	-4567
tadi	-4568
tahi	-4569
udie	-4570
wayi	-4571
wele	-4572
▁Ene	-4573
▁biw	-4574
▁san	-4575
▁wan	-4576
elelu	-4577
hebua	-4578
shilu	-4579
tonde	-4580
wesha	-4581
yooka	-4582
▁Balu	-4583
▁Geda	-4584
▁Luka	-4585
▁Luse	-4586
▁Mbua	-4587
▁Meku	-4588
▁bate	-4589
▁enda	-4590
▁node	-4591
▁orge	-4592
anashi	-4593
fileye	-4594
kunyua	-4595
peesha	-4596
sabuke	-4597
shindi	-4598
▁Bâsha	-4599
▁Efeso	-4600
▁Obeda	-4601
▁Pavua	-4602
▁Tshia	-4603
▁Unvua	-4604
▁nebab	-4605
abikila	-4606
anukile	-4607
bakuata	-4608
kemesha	-4609
shikika	-4610
timetre	-4611
tuadila	-4612
▁Kâmele	-4613
▁Lekela	-4614
▁Mikaya	-4615
▁Mukuna	-4616
▁Nebata	-4617
▁Sihone	-4618
▁bamona	-4619
▁difila	-4620
▁dikama	-4621
▁dikese	-4622
▁hadada	-4623
▁kabutu	-4624
▁kuakua	-4625
▁kusela	-4626
▁manvua	-4627
▁ndunga	-4628
▁nkumba	-4629
▁ulonda	-4630
▁umusha	-4631
sombuedi	-4632
tahuluka	-4633
▁Hazaele	-4634
▁Kadeshe	-4635
▁Kolesha	-4636
▁Mushete	-4637
▁bibumba	-4638
▁butamba	-4639
▁dikuabu	-4640
▁dilonda	-4641
▁disànka	-4642
▁kabavua	-4643
▁kamanda	-4644
▁kupesha	-4645
▁kusumba	-4646
▁mishimi	-4647
▁mubanji	-4648
▁muluate	-4649
▁mushiki	-4650
▁nkayabo	-4651
▁tatuabu	-4652
▁wangata	-4653
ngishibua	-4654
tangileye	-4655
vulangane	-4656
▁Gedaliya	-4657
▁Nakunvua	-4658
▁Nuvuluke	-4659
▁Tshianza	-4660
▁bihiminu	-4661
▁dilelela	-4662
▁muananyi	-4663
▁mululame	-4664
▁neambile	-4665
▁nsombelu	-4666
▁tshinaka	-4667
▁tuludiki	-4668
▁wakakeba	-4669
▁wakatula	-4670
▁wakidika	-4671
▁wakikala	-4672
▁wakuenza	-4673
bandabanda	-4674
koleshibua	-4675
▁Kutshinyi	-4676
▁Meshulama	-4677
▁binsonshi	-4678
▁kubuelela	-4679
▁mananashi	-4680
▁mpukahuka	-4681
▁mutangile	-4682
▁tshibombi	-4683
▁tshishale	-4684
▁tshivualu	-4685
▁Hakafikabo	-4686
▁kuelangana	-4687
▁kusangisha	-4688
▁santimetre	-4689
▁tshikudika	-4690
▁Kanutshinyi	-4691
▁bakamulonda	-4692
▁nebamumushe	-4693
▁tshibandilu	-4694
▁wakadianjila	-4695
EN	-4696
ru	-4697
dan	-4698
ema	-4699
que	-4700
yai	-4701
hola	-4702
jabu	-4703
lale	-4704
luma	-4705
nana	-4706
pola	-4707
yine	-4708
zele	-4709
▁Amu	-4710
▁nyi	-4711
▁nên	-4712
▁una	-4713
besha	-4714
buedi	-4715
fundu	-4716
hishe	-4717
kanku	-4718
kuila	-4719
mukai	-4720
ngana	-4721
shaka	-4722
shama	-4723
▁Bile	-4724
▁Maha	-4725
▁Nuna	-4726
▁Pine	-4727
▁Sane	-4728
▁Zela	-4729
▁mifu	-4730
▁muhi	-4731
▁muji	-4732
▁mulo	-4733
▁mupu	-4734
▁muye	-4735
▁wowe	-4736
andila	-4737
nyenge	-4738
ondaha	-4739
sulula	-4740
teketa	-4741
▁Ahiya	-4742
▁Ebele	-4743
▁Elama	-4744
▁Elifa	-4745
▁Kuenz	-4746
▁Mabue	-4747
▁Sheba	-4748
▁akama	-4749
▁bamue	-4750
▁bashi	-4751
▁buadi	-4752
▁kalua	-4753
▁kamue	-4754
▁mbala	-4755
▁milau	-4756
▁mmena	-4757
▁ngaku	-4758
▁ngela	-4759
▁tshib	-4760
▁ufuma	-4761
▁uwaka	-4762
▁uwaku	-4763
abutule	-4764
endesha	-4765
ikadilu	-4766
ishibua	-4767
manyike	-4768
▁Mukaji	-4769
▁Mukoko	-4770
▁Musoko	-4771
▁Ntenta	-4772
▁Pelasa	-4773
▁Wakaya	-4774
▁amanye	-4775
▁bafike	-4776
▁bitoke	-4777
▁budibo	-4778
▁dibaya	-4779
▁dibidi	-4780
▁diônso	-4781
▁hanaka	-4782
▁kakanu	-4783
▁mahite	-4784
▁mufuba	-4785
▁muinai	-4786
▁uhanga	-4787
▁uhidia	-4788
▁usanka	-4789
▁wakalu	-4790
sombesha	-4791
tshibule	-4792
▁bakenda	-4793
▁baluate	-4794
▁bangate	-4795
▁bayende	-4796
▁bishala	-4797
▁kutshin	-4798
▁lusenga	-4799
▁makunze	-4800
▁midioko	-4801
▁mumonyi	-4802
▁nebambe	-4803
vulambedi	-4804
yangakaja	-4805
▁Pinehasa	-4806
▁bakamana	-4807
▁dikunshi	-4808
▁kabikadi	-4809
▁kumbusha	-4810
▁nenufile	-4811
▁tshitanu	-4812
▁wakabaka	-4813
shikisheye	-4814
tshiatshia	-4815
tshinyisha	-4816
▁dihungila	-4817
▁dikumbana	-4818
▁kasombela	-4819
▁kusangana	-4820
▁tshiluilu	-4821
▁umuambila	-4822
▁wakahunga	-4823
▁Nsongalume	-4824
▁bakabikila	-4825
▁munuambile	-4826
▁nshikidilu	-4827
▁wakabatuma	-4828
▁wakalekela	-4829
▁wakanyenga	-4830
▁wakatshidi	-4831
▁dilumbulula	-4832
▁Hakashikisha	-4833
▁bakambilangana	-4834
▁masungulangana	-4835
mê	-4836
dua	-4837
ibi	-4838
nta	-4839
▁mû	-4840
biya	-4841
fune	-4842
hole	-4843
huwa	-4844
kate	-4845
koso	-4846
leje	-4847
suma	-4848
wela	-4849
▁Alo	-4850
▁Nui	-4851
▁dit	-4852
▁hau	-4853
▁ngi	-4854
abula	-4855
kunda	-4856
kundu	-4857
londi	-4858
luele	-4859
luile	-4860
lushi	-4861
menga	-4862
ngunu	-4863
tonga	-4864
weela	-4865
yange	-4866
yishe	-4867
▁Bila	-4868
▁Bobu	-4869
▁Dane	-4870
▁Kuba	-4871
▁Lefa	-4872
▁Mufi	-4873
▁Nebu	-4874
▁Poti	-4875
▁Sela	-4876
▁Tama	-4877
▁biku	-4878
▁diha	-4879
▁dile	-4880
▁maja	-4881
▁mute	-4882
▁neun	-4883
▁tuba	-4884
babela	-4885
badaya	-4886
kebele	-4887
mpeshe	-4888
nganyi	-4889
pikula	-4890
pitshi	-4891
semene	-4892
toloka	-4893
zulula	-4894
ûmusha	-4895
▁Diaka	-4896
▁Kishi	-4897
▁baban	-4898
▁buhia	-4899
▁bûngi	-4900
▁kabui	-4901
▁mutue	-4902
▁muudi	-4903
▁ndimi	-4904
▁nembu	-4905
▁nkudi	-4906
▁nkuka	-4907
▁nkutu	-4908
▁ubala	-4909
▁unaka	-4910
▁Ânona	-4911
buikidi	-4912
kuatabo	-4913
londela	-4914
manyeye	-4915
yengabo	-4916
▁Baluka	-4917
▁Kabaka	-4918
▁Ngombe	-4919
▁Nuenze	-4920
▁Yefune	-4921
▁akenza	-4922
▁akenze	-4923
▁ambila	-4924
▁angate	-4925
▁bafofo	-4926
▁bakaha	-4927
▁bateka	-4928
▁biônso	-4929
▁bumuke	-4930
▁dikala	-4931
▁dishia	-4932
▁kuimba	-4933
▁kukuna	-4934
▁kunzuu	-4935
▁luhetu	-4936
▁mikale	-4937
▁muende	-4938
▁muwaku	-4939
▁netuku	-4940
▁teleja	-4941
▁tshimu	-4942
▁tuonso	-4943
▁uyisha	-4944
andamuke	-4945
endakana	-4946
hingishe	-4947
ilangana	-4948
kenjibua	-4949
lekelela	-4950
pandisha	-4951
vuishila	-4952
▁Amaleke	-4953
▁Butshia	-4954
▁Mukenji	-4955
▁alualua	-4956
▁bilenga	-4957
▁bumfumu	-4958
▁diabolo	-4959
▁dishiha	-4960
▁hanuaka	-4961
▁kufunda	-4962
▁kuikale	-4963
▁mibangu	-4964
▁nebadie	-4965
▁nenteke	-4966
▁tshihia	-4967
jingulule	-4968
sangakene	-4969
shikameye	-4970
▁Mitshima	-4971
▁Mufikilu	-4972
▁bakadimu	-4973
▁bibidilu	-4974
▁biendedi	-4975
▁dinkenka	-4976
▁kuenzabo	-4977
▁kupatuka	-4978
▁muakunyi	-4979
▁muenzele	-4980
▁nakuamba	-4981
▁nuangate	-4982
▁wakahita	-4983
tandatanda	-4984
vudishibue	-4985
▁bakakuata	-4986
▁bakalenga	-4987
▁baledibue	-4988
▁dibuikila	-4989
▁kutshinyi	-4990
▁makanyika	-4991
▁mupostolo	-4992
▁musangane	-4993
▁ngikadilu	-4994
▁tshitungu	-4995
▁welangana	-4996
▁witabushe	-4997
▁Minisitila	-4998
▁bakasabuka	-4999
▁baluangana	-5000
▁disakidila	-5001
▁kubabutula	-5002
▁kungambila	-5003
▁nengumushe	-5004
▁nutumikile	-5005
▁bakabashiha	-5006
▁kutentekela	-5007
▁nebamushihe	-5008
▁tunkanunuma	-5009
▁kunyingalala	-5010
▁V	-5011
ezê	-5012
▁pe	-5013
▁wo	-5014
baba	-5015
huda	-5016
kaya	-5017
kete	-5018
kute	-5019
meme	-5020
rote	-5021
sabo	-5022
seki	-5023
tahe	-5024
tane	-5025
vena	-5026
welo	-5027
yole	-5028
▁Ale	-5029
▁Ita	-5030
▁Naf	-5031
▁Nua	-5032
▁Oga	-5033
▁itu	-5034
bidia	-5035
buidi	-5036
emeke	-5037
lambi	-5038
mbelu	-5039
sumbi	-5040
uluka	-5041
vungu	-5042
woshe	-5043
yenza	-5044
▁Bamu	-5045
▁Bina	-5046
▁Hiwi	-5047
▁Yabe	-5048
▁Zelu	-5049
▁anji	-5050
▁dîba	-5051
▁kawi	-5052
▁kubo	-5053
▁kupu	-5054
▁lona	-5055
▁mbia	-5056
▁mume	-5057
▁unyi	-5058
▁wake	-5059
abanga	-5060
abisha	-5061
kumina	-5062
lamina	-5063
mekela	-5064
yukila	-5065
▁Agare	-5066
▁Amone	-5067
▁Muele	-5068
▁Ngasa	-5069
▁Nuele	-5070
▁Twayi	-5071
▁adibu	-5072
▁demon	-5073
▁neulu	-5074
▁ngudi	-5075
▁nsala	-5076
▁tuvua	-5077
▁yamba	-5078
bambile	-5079
dimuene	-5080
huekela	-5081
mbikile	-5082
shawelo	-5083
shihelu	-5084
tangana	-5085
tijibua	-5086
▁Ashere	-5087
▁Eliaba	-5088
▁Kayine	-5089
▁Kekate	-5090
▁Pelese	-5091
▁Sarayi	-5092
▁Sodome	-5093
▁akalua	-5094
▁akamba	-5095
▁bahita	-5096
▁balama	-5097
▁balele	-5098
▁basang	-5099
▁biakan	-5100
▁bidiku	-5101
▁bivule	-5102
▁buludi	-5103
▁butudi	-5104
▁bwaalu	-5105
▁difuka	-5106
▁dikuba	-5107
▁ditshu	-5108
▁kambua	-5109
▁kanuba	-5110
▁kanumu	-5111
▁kukole	-5112
▁malaba	-5113
▁mubaki	-5114
▁nakunu	-5115
▁ngashi	-5116
▁nsenga	-5117
▁nzenze	-5118
▁ubenga	-5119
▁ukonka	-5120
▁ushala	-5121
andamuka	-5122
elangane	-5123
hingasha	-5124
longesha	-5125
tuambila	-5126
▁Nenudie	-5127
▁Numanye	-5128
▁Oholiba	-5129
▁Uvuluke	-5130
▁bakulua	-5131
▁batuala	-5132
▁bibanda	-5133
▁bibombi	-5134
▁diakamu	-5135
▁dijinga	-5136
▁ditumba	-5137
▁hashika	-5138
▁kuhaula	-5139
▁lusongo	-5140
▁mpokolu	-5141
▁nushale	-5142
▁wakashi	-5143
lenduisha	-5144
pianganyi	-5145
sunguleye	-5146
▁Ditalala	-5147
▁Kuenzabu	-5148
▁Tshidimu	-5149
▁Tshijila	-5150
▁bidikoka	-5151
▁kuhikula	-5152
▁kunemeka	-5153
▁kuoshela	-5154
▁kusemena	-5155
▁lulamatu	-5156
luatshishe	-5157
shawelosha	-5158
▁Binuikala	-5159
▁Hakamanya	-5160
▁bakabanda	-5161
▁bakafunda	-5162
▁bakasanka	-5163
▁bakumbaje	-5164
▁batungula	-5165
▁biakadiye	-5166
▁bikumbane	-5167
▁kumukuata	-5168
▁kusungula	-5169
▁kutuadija	-5170
▁mutengula	-5171
▁nemuikale	-5172
▁tshibunda	-5173
lengeshibua	-5174
▁Hakunvuabo	-5175
▁Zelubabela	-5176
▁banuambila	-5177
▁basambombo	-5178
▁biakenzeye	-5179
▁kuhandisha	-5180
▁kukengesha	-5181
▁kukuenzela	-5182
▁wakabafila	-5183
▁bakabambila	-5184
▁kudikobolola	-5185
▁Ahashawelosha	-5186
▁mulumbuluishi	-5187
▁tukusengelela	-5188
▁tshibandabanda	-5189
▁wakabakudimuna	-5190
va	-5191
SHI	-5192
mvu	-5193
nsu	-5194
▁Yâ	-5195
beya	-5196
bone	-5197
dike	-5198
dodo	-5199
gona	-5200
lamu	-5201
mamu	-5202
muha	-5203
riya	-5204
rubi	-5205
toyi	-5206
▁Mmu	-5207
▁Ung	-5208
ebele	-5209
shadi	-5210
shima	-5211
vuala	-5212
▁Amba	-5213
▁Batu	-5214
▁Bule	-5215
▁Haga	-5216
▁Isma	-5217
▁Luta	-5218
▁Mali	-5219
▁Mamu	-5220
▁Mâko	-5221
▁Nile	-5222
▁Sila	-5223
▁atua	-5224
▁bakâ	-5225
▁biko	-5226
▁bowa	-5227
▁buna	-5228
▁habi	-5229
▁luhu	-5230
▁luki	-5231
▁muna	-5232
▁tubi	-5233
▁wakâ	-5234
bakila	-5235
hikule	-5236
keleye	-5237
lekedi	-5238
mbasha	-5239
nukunu	-5240
oshila	-5241
samina	-5242
tshipe	-5243
▁Naomi	-5244
▁Nembu	-5245
▁Tâshi	-5246
▁Uteke	-5247
▁badie	-5248
▁bakab	-5249
▁bakau	-5250
▁buana	-5251
▁diaha	-5252
▁kandi	-5253
▁kansu	-5254
▁kumua	-5255
▁muedi	-5256
▁munua	-5257
▁mwabo	-5258
▁umena	-5259
dankulu	-5260
fundile	-5261
handika	-5262
jingila	-5263
mbishai	-5264
nyikaye	-5265
songabo	-5266
vudishe	-5267
▁Timena	-5268
▁Tobiya	-5269
▁Tshila	-5270
▁angata	-5271
▁bidime	-5272
▁difuku	-5273
▁dihetu	-5274
▁ditoke	-5275
▁kwenza	-5276
▁lukole	-5277
▁matoba	-5278
▁mikaba	-5279
▁nebadi	-5280
▁neufue	-5281
▁ntanta	-5282
▁padibo	-5283
▁panudi	-5284
▁tumelu	-5285
▁unanga	-5286
▁ushiha	-5287
▁wakumu	-5288
angalaka	-5289
idikisha	-5290
kenzesha	-5291
kuenzela	-5292
luangane	-5293
manyibua	-5294
▁Dikenga	-5295
▁Ekelona	-5296
▁Kanuaku	-5297
▁Nakamba	-5298
▁Tshintu	-5299
▁bakasua	-5300
▁biatshi	-5301
▁bisanji	-5302
▁dibanji	-5303
▁kudiela	-5304
▁kudinga	-5305
▁kuibaka	-5306
▁kuihata	-5307
▁kumuene	-5308
▁lusongu	-5309
▁matandu	-5310
▁matempu	-5311
▁muakanu	-5312
▁muitanu	-5313
▁neafute	-5314
▁nusanke	-5315
▁tukanda	-5316
▁wangate	-5317
▁wenzela	-5318
bambileye	-5319
handuluke	-5320
kenzeleye	-5321
tombokedi	-5322
▁Ashedodo	-5323
▁Ismayele	-5324
▁bakabala	-5325
▁bakafuma	-5326
▁bakajuka	-5327
▁banyengi	-5328
▁bikalabo	-5329
▁hakunvua	-5330
▁kambualu	-5331
▁kampande	-5332
▁komekela	-5333
▁kulelaye	-5334
▁kumufila	-5335
▁kusabuka	-5336
▁mubanshi	-5337
▁mulelela	-5338
▁ngambila	-5339
▁nkudimba	-5340
▁ntshintu	-5341
▁pashishe	-5342
▁shemeshe	-5343
▁tshikulu	-5344
▁tshitunu	-5345
▁wakitaba	-5346
hingishila	-5347
▁Hakaluabo	-5348
▁Mungalata	-5349
▁Mutumibue	-5350
▁Shimeyone	-5351
▁Tshisumbu	-5352
▁basungula	-5353
▁batangila	-5354
▁bibuelelu	-5355
▁kubashiha	-5356
▁kukumbana	-5357
▁nukumbaje	-5358
▁bakalekela	-5359
▁bakalelabo	-5360
▁bakanyenga	-5361
▁buakenzeye	-5362
▁dikamakama	-5363
▁lukunukunu	-5364
▁neashikame	-5365
▁wakumukaku	-5366
tangilangana	-5367
▁akenzesheye	-5368
▁bakamushiha	-5369
▁balumbuludi	-5370
▁dipangadika	-5371
▁ditangilula	-5372
▁wakidikisha	-5373
▁bakatumbisha	-5374
▁mukuatshishi	-5375
▁nnusengelela	-5376
▁Balumbuluishi	-5377
▁bakatendelela	-5378
▁kudilongolola	-5379
▁mitangilangane	-5380
ce	-5381
ike	-5382
ono	-5383
pua	-5384
▁Mp	-5385
▁Nê	-5386
▁ee	-5387
▁nj	-5388
funa	-5389
juke	-5390
jula	-5391
leve	-5392
many	-5393
nama	-5394
nvua	-5395
nvue	-5396
rari	-5397
tedi	-5398
teki	-5399
tole	-5400
tota	-5401
waye	-5402
widi	-5403
yire	-5404
yoke	-5405
▁Agi	-5406
▁Ami	-5407
▁Ebi	-5408
▁Sei	-5409
▁apa	-5410
▁bak	-5411
▁bij	-5412
▁ute	-5413
abada	-5414
abota	-5415
anetu	-5416
bueja	-5417
eleke	-5418
elete	-5419
hanyi	-5420
huidi	-5421
lengi	-5422
monya	-5423
ndame	-5424
shane	-5425
songe	-5426
▁Geba	-5427
▁Hese	-5428
▁Kale	-5429
▁Kutu	-5430
▁Mulu	-5431
▁Naho	-5432
▁Nebi	-5433
▁Suko	-5434
▁Teka	-5435
▁Umue	-5436
▁hika	-5437
▁male	-5438
▁musa	-5439
▁nebâ	-5440
▁neku	-5441
▁nemb	-5442
dadezê	-5443
enzelu	-5444
fikila	-5445
gayila	-5446
hikudi	-5447
kidika	-5448
leleye	-5449
ludika	-5450
mbishi	-5451
pikule	-5452
tofele	-5453
tulabo	-5454
▁Eyowa	-5455
▁Mishi	-5456
▁Nyeye	-5457
▁Omeli	-5458
▁diudi	-5459
▁katui	-5460
▁luaku	-5461
▁luenu	-5462
▁muibi	-5463
lenduka	-5464
mpakana	-5465
mpatule	-5466
mpianyi	-5467
▁Akisha	-5468
▁Bimuna	-5469
▁Lekaba	-5470
▁Merari	-5471
▁Mukana	-5472
▁Nabota	-5473
▁Nadaba	-5474
▁Nebanu	-5475
▁Tshitu	-5476
▁bakula	-5477
▁banayi	-5478
▁bibaka	-5479
▁bifulu	-5480
▁bipite	-5481
▁bumuka	-5482
▁bununu	-5483
▁buwaka	-5484
▁dikema	-5485
▁dikoho	-5486
▁ilonda	-5487
▁kufuka	-5488
▁kunyua	-5489
▁luende	-5490
▁lukinu	-5491
▁mabedi	-5492
▁mbingu	-5493
▁mbintu	-5494
▁mikumu	-5495
▁muendu	-5496
▁mupite	-5497
▁musesu	-5498
▁muteke	-5499
▁mweena	-5500
▁netuye	-5501
▁tshika	-5502
▁umanye	-5503
▁usomba	-5504
▁wakafu	-5505
mpulushi	-5506
sokolola	-5507
sokomenu	-5508
▁Anatota	-5509
▁Gêshona	-5510
▁Hananya	-5511
▁Izebele	-5512
▁Shaluma	-5513
▁basanka	-5514
▁bavuaye	-5515
▁bituadi	-5516
▁diakane	-5517
▁difunda	-5518
▁dimanya	-5519
▁kamonya	-5520
▁kukuabo	-5521
▁mashale	-5522
▁mashina	-5523
▁momumue	-5524
▁nfiondo	-5525
▁ngikale	-5526
▁ngovena	-5527
▁tshinga	-5528
▁tshiudi	-5529
▁uvuisha	-5530
▁uyikila	-5531
bikidibua	-5532
sengelele	-5533
▁Hadadezê	-5534
▁Hanakadi	-5535
▁Lungenyi	-5536
▁Masalayi	-5537
▁Munyinyi	-5538
▁Shushana	-5539
▁Tâshishi	-5540
▁Yohanana	-5541
▁bakadiye	-5542
▁bienzeka	-5543
▁malamate	-5544
▁nkashama	-5545
▁ntangila	-5546
▁tshikutu	-5547
▁tshitela	-5548
▁umueneka	-5549
▁wakadiye	-5550
▁wakumana	-5551
muitabusha	-5552
shikishabo	-5553
▁Abigayila	-5554
▁Ahitofele	-5555
▁Hakabuela	-5556
▁Kakuakadi	-5557
▁dibendela	-5558
▁ditomboka	-5559
▁kubuhiana	-5560
▁mubambile	-5561
▁nebashihe	-5562
▁tshiatshi	-5563
▁tshikondu	-5564
▁wakamuela	-5565
▁Hakafikeye	-5566
▁batumikila	-5567
▁diakambeye	-5568
▁kusankisha	-5569
▁mukuambile	-5570
▁mundidimbi	-5571
▁neatangile	-5572
▁tshiendedi	-5573
▁wakajadika	-5574
▁wakamufila	-5575
▁wakamutuma	-5576
▁Tshisangilu	-5577
▁ditantamana	-5578
▁hakatshiabu	-5579
▁mukuatshike	-5580
▁neanutumine	-5581
▁tshishihelu	-5582
▁badisangisha	-5583
▁bakamuebesha	-5584
▁bilumbulwilu	-5585
▁wakamanyisha	-5586
▁mushipianganyi	-5587
TU	-5588
hâ	-5589
zo	-5590
esu	-5591
hen	-5592
mpo	-5593
oni	-5594
pue	-5595
sho	-5596
tue	-5597
zan	-5598
▁Do	-5599
▁Zê	-5600
▁bû	-5601
▁nû	-5602
doke	-5603
lizi	-5604
mema	-5605
more	-5606
onge	-5607
pota	-5608
rewu	-5609
tali	-5610
uvua	-5611
yina	-5612
yore	-5613
zola	-5614
▁Eku	-5615
▁Ngi	-5616
▁awa	-5617
▁hai	-5618
▁tsh	-5619
▁ufu	-5620
abeya	-5621
dinga	-5622
kûsha	-5623
miana	-5624
olole	-5625
onena	-5626
shasâ	-5627
taanu	-5628
▁Ishi	-5629
▁Kabi	-5630
▁Kila	-5631
▁Lumu	-5632
▁Mvua	-5633
▁Nebo	-5634
▁Nger	-5635
▁Selo	-5636
▁bake	-5637
▁basa	-5638
▁biau	-5639
▁kuke	-5640
▁kune	-5641
▁menu	-5642
▁mibu	-5643
▁tush	-5644
dekela	-5645
filabo	-5646
hatule	-5647
hitshi	-5648
jalama	-5649
kadile	-5650
kalaya	-5651
lelele	-5652
maneye	-5653
shinde	-5654
sokome	-5655
▁Adama	-5656
▁Anaka	-5657
▁Buaka	-5658
▁Dibue	-5659
▁Luehu	-5660
▁Manoa	-5661
▁Shele	-5662
▁Yoele	-5663
▁banga	-5664
▁diodi	-5665
▁hatua	-5666
▁litre	-5667
▁manze	-5668
▁mmeku	-5669
▁mutan	-5670
▁ngumu	-5671
▁nteka	-5672
▁ntole	-5673
▁nênze	-5674
▁pambe	-5675
▁pandi	-5676
▁utuma	-5677
buelamu	-5678
eyemene	-5679
kishila	-5680
manyabo	-5681
mbakana	-5682
tukuata	-5683
▁Balami	-5684
▁Bianza	-5685
▁Ebrewu	-5686
▁Matana	-5687
▁Nabala	-5688
▁Nebaku	-5689
▁Nulame	-5690
▁Tamare	-5691
▁Teleja	-5692
▁Uziele	-5693
▁Zimeli	-5694
▁bakabu	-5695
▁bisaka	-5696
▁buhele	-5697
▁butoke	-5698
▁dianze	-5699
▁didibu	-5700
▁dienza	-5701
▁dikeji	-5702
▁kabulu	-5703
▁lekela	-5704
▁mamane	-5705
▁matshi	-5706
▁milume	-5707
▁muambi	-5708
▁nenuba	-5709
▁nukeba	-5710
▁numone	-5711
▁ulomba	-5712
▁ushale	-5713
▁wakutu	-5714
huekeshe	-5715
jadikila	-5716
kankunde	-5717
kanyenga	-5718
kanyinga	-5719
kookeshi	-5720
kumbasha	-5721
tahulule	-5722
▁Ahikama	-5723
▁Amalama	-5724
▁Asahele	-5725
▁Bimenga	-5726
▁Dikunze	-5727
▁Goshene	-5728
▁Isakare	-5729
▁Lakisha	-5730
▁Musambu	-5731
▁Wakalua	-5732
▁badisue	-5733
▁bahueka	-5734
▁bamonyi	-5735
▁bashipe	-5736
▁bayishi	-5737
▁bihanza	-5738
▁binuvua	-5739
▁boshete	-5740
▁butambe	-5741
▁hanalua	-5742
▁kudiabo	-5743
▁kudisha	-5744
▁kuimita	-5745
▁kunyema	-5746
▁kusuika	-5747
▁kutuala	-5748
▁lubanza	-5749
▁lulengu	-5750
▁mifunda	-5751
▁mukanku	-5752
▁mukuate	-5753
▁nakulua	-5754
▁nenfile	-5755
▁newenze	-5756
▁ngakula	-5757
▁ngulube	-5758
▁nkayenu	-5759
▁nshinga	-5760
▁tshimwe	-5761
hongolola	-5762
sanganabo	-5763
yungulula	-5764
▁Biwikala	-5765
▁Tshibilu	-5766
▁akenzabo	-5767
▁bakamuha	-5768
▁bubanshi	-5769
▁kuinyika	-5770
▁kunyanga	-5771
▁luhuishi	-5772
▁masokoka	-5773
▁munakadi	-5774
▁nakamana	-5775
▁neashale	-5776
▁nebatshi	-5777
▁neumanye	-5778
▁ngulungu	-5779
▁nuambile	-5780
▁wakabala	-5781
▁wakadibo	-5782
▁wakimita	-5783
jimishibue	-5784
kukuambila	-5785
tengudibue	-5786
▁Ahimeleke	-5787
▁Baprofete	-5788
▁Kanuikadi	-5789
▁Ngershone	-5790
▁Tshilamba	-5791
▁Tumbishai	-5792
▁bakakonka	-5793
▁balaminyi	-5794
▁bitabushe	-5795
▁bitubuidi	-5796
▁bumpianyi	-5797
▁ditengula	-5798
▁isambombu	-5799
▁kujimisha	-5800
▁mbuhianyi	-5801
▁mpukapuka	-5802
▁muakadibo	-5803
▁mutantshi	-5804
▁nenvuishe	-5805
▁tshilongo	-5806
▁tshishiku	-5807
▁umuambile	-5808
muangalashe	-5809
tumbishibua	-5810
▁bangabanga	-5811
▁kudijidila	-5812
▁kuitabushi	-5813
▁mundankulu	-5814
▁nempingane	-5815
▁ngitabusha	-5816
▁ujingulula	-5817
ngenyingenyi	-5818
▁Wakidikisha	-5819
▁disuminyina	-5820
▁kavulambedi	-5821
▁kubuikidila	-5822
▁tshiakahung	-5823
▁tshiendenda	-5824
▁tshifukibue	-5825
▁wakamulonda	-5826
▁hatshiatshia	-5827
▁kumuandamuna	-5828
▁Buakabuluibua	-5829
▁bansongakashi	-5830
bê	-5831
sô	-5832
té	-5833
yà	-5834
▁Ô	-5835
fan	-5836
ine	-5837
seb	-5838
▁Ad	-5839
▁Am	-5840
▁BI	-5841
▁Hê	-5842
▁Pu	-5843
▁Wi	-5844
bila	-5845
buke	-5846
dabe	-5847
eena	-5848
habu	-5849
ilai	-5850
kija	-5851
noma	-5852
numa	-5853
seya	-5854
tona	-5855
vila	-5856
▁Aki	-5857
▁Ali	-5858
▁Ken	-5859
▁Mba	-5860
▁New	-5861
▁Sam	-5862
▁Uza	-5863
▁Yet	-5864
▁ang	-5865
▁apu	-5866
▁kwi	-5867
▁mpo	-5868
▁ump	-5869
akaje	-5870
binta	-5871
ebeja	-5872
kanya	-5873
kuame	-5874
mbola	-5875
mbuka	-5876
mibue	-5877
nyoke	-5878
sunsu	-5879
tuila	-5880
▁Bake	-5881
▁Daya	-5882
▁Didi	-5883
▁Hash	-5884
▁Kabe	-5885
▁Leho	-5886
▁Luhe	-5887
▁Nyun	-5888
▁TSHI	-5889
▁Tuye	-5890
▁Zebu	-5891
▁enze	-5892
▁idia	-5893
▁kabe	-5894
▁kuau	-5895
▁luya	-5896
▁ndua	-5897
▁nuya	-5898
▁tshî	-5899
▁utua	-5900
▁wawa	-5901
jukula	-5902
kelabo	-5903
kihata	-5904
kosele	-5905
monaye	-5906
ngishe	-5907
oweshe	-5908
shisha	-5909
talaya	-5910
tiokia	-5911
unzulu	-5912
yemenu	-5913
▁Edene	-5914
▁Itamâ	-5915
▁Madai	-5916
▁Misha	-5917
▁Munya	-5918
▁Olola	-5919
▁Shama	-5920
▁Tuaka	-5921
▁Umuke	-5922
▁afile	-5923
▁biota	-5924
▁biule	-5925
▁bosha	-5926
▁diala	-5927
▁dinga	-5928
▁edome	-5929
▁luetu	-5930
▁miadi	-5931
▁miehu	-5932
▁mulue	-5933
▁neuba	-5934
▁neutu	-5935
▁nkeba	-5936
▁nudia	-5937
▁ulela	-5938
abuesha	-5939
ambuila	-5940
bueleye	-5941
menesha	-5942
musheye	-5943
neemeka	-5944
nguisha	-5945
pingaje	-5946
sonsola	-5947
tekesha	-5948
temesha	-5949
▁Bakaba	-5950
▁Hahita	-5951
▁Hanoka	-5952
▁Hemana	-5953
▁Hinoma	-5954
▁Holeba	-5955
▁Hushai	-5956
▁Kulela	-5957
▁Mahana	-5958
▁Midimu	-5959
▁Mufuki	-5960
▁Padiye	-5961
▁ahueka	-5962
▁bamamu	-5963
▁batela	-5964
▁bitadi	-5965
▁bitudi	-5966
▁bulami	-5967
▁buwaku	-5968
▁ditoba	-5969
▁hadiye	-5970
▁kabatu	-5971
▁kanemu	-5972
▁kubaha	-5973
▁kufuta	-5974
▁kujuka	-5975
▁kukola	-5976
▁kukuma	-5977
▁kuyaye	-5978
▁maboku	-5979
▁mateyi	-5980
▁mmuena	-5981
▁mupete	-5982
▁mupuya	-5983
▁musang	-5984
▁mutume	-5985
▁neulue	-5986
▁nkonga	-5987
▁nuambe	-5988
▁uhenda	-5989
▁uhueka	-5990
▁umushe	-5991
▁wakang	-5992
▁yalima	-5993
abuikile	-5994
enzeleye	-5995
itabushi	-5996
kobolole	-5997
kumbashe	-5998
sombuele	-5999
▁Atalaya	-6000
▁Bamfumu	-6001
▁Elekana	-6002
▁Hakamba	-6003
▁Kasumbu	-6004
▁Musangu	-6005
▁Naftali	-6006
▁Nenkuhe	-6007
▁Netanya	-6008
▁Yabesha	-6009
▁babanda	-6010
▁bahenda	-6011
▁bakuate	-6012
▁bananga	-6013
▁bangata	-6014
▁banyema	-6015
▁batambe	-6016
▁bavuabu	-6017
▁busambi	-6018
▁dibungi	-6019
▁dileeja	-6020
▁dinyoka	-6021
▁dishima	-6022
▁divuaye	-6023
▁katuaka	-6024
▁kumuela	-6025
▁mulenge	-6026
▁mushipe	-6027
▁neatshi	-6028
▁pambelu	-6029
▁tshiala	-6030
▁tuhamba	-6031
▁ujadika	-6032
▁wakosha	-6033
jimishila	-6034
panduluke	-6035
▁Antiokia	-6036
▁Kuambila	-6037
▁Wakatuma	-6038
▁bakalala	-6039
▁buludiki	-6040
▁diakamba	-6041
▁kuhatuka	-6042
▁kunyenga	-6043
▁kutekamu	-6044
▁kuvuluka	-6045
▁mmulambu	-6046
▁mujadike	-6047
▁mukeluba	-6048
▁tangilai	-6049
▁tshiakan	-6050
▁tshifuka	-6051
▁uhingana	-6052
▁wakelela	-6053
muangalaka	-6054
tangadishe	-6055
▁Dayawesha	-6056
▁Oholibama	-6057
▁bakahaula	-6058
▁bamushipe	-6059
▁basangane	-6060
▁dimueneka	-6061
▁hatuakadi	-6062
▁kubenzela	-6063
▁kukolesha	-6064
▁kukuatshi	-6065
▁kumueneka	-6066
▁madidishi	-6067
▁nebashale	-6068
▁nebishale	-6069
▁nkayatshi	-6070
▁telebinta	-6071
▁wakantuma	-6072
▁bufikuluke	-6073
▁kukumbasha	-6074
▁kupitshila	-6075
▁muakenzeye	-6076
▁munupatule	-6077
▁munyanguke	-6078
▁tshihehele	-6079
▁tshikadilu	-6080
▁wakasemena	-6081
▁wakayikila	-6082
▁bafuishibue	-6083
▁kutendekena	-6084
▁nebahingane	-6085
▁tshinyemenu	-6086
▁wakabebesha	-6087
▁Wakamuambila	-6088
▁dinyangakaja	-6089
▁kubamanyisha	-6090
▁minyunguluke	-6091
▁mufuanangane	-6092
▁nebashihibue	-6093
▁wakamubikila	-6094
▁wakanuhatula	-6095
▁wakatuangana	-6096
▁kulumbuluisha	-6097
▁muakamuambila	-6098
▁tshilembeleja	-6099
▁wakavudishila	-6100
▁bakakonkangana	-6101
fâ	-6102
gâ	-6103
bai	-6104
mun	-6105
wua	-6106
▁Yu	-6107
▁la	-6108
abua	-6109
buku	-6110
bâla	-6111
fuke	-6112
futu	-6113
gada	-6114
hada	-6115
hazi	-6116
jule	-6117
lata	-6118
lodi	-6119
mate	-6120
newe	-6121
rane	-6122
tuna	-6123
undi	-6124
vuwa	-6125
yabe	-6126
▁Adu	-6127
▁Aze	-6128
▁Byà	-6129
▁Nte	-6130
▁ahu	-6131
▁ken	-6132
▁kue	-6133
▁kup	-6134
▁maj	-6135
▁mus	-6136
▁uwa	-6137
▁wai	-6138
dombe	-6139
nange	-6140
ngama	-6141
salon	-6142
shike	-6143
suabo	-6144
yidie	-6145
▁Bubi	-6146
▁Bûdi	-6147
▁Dika	-6148
▁Kabu	-6149
▁Labi	-6150
▁Maga	-6151
▁Nutu	-6152
▁Nuye	-6153
▁Tamâ	-6154
▁Tito	-6155
▁Zifa	-6156
▁akan	-6157
▁bahe	-6158
▁bahu	-6159
▁biai	-6160
▁bung	-6161
▁mahu	-6162
▁maye	-6163
▁mbue	-6164
▁mihi	-6165
▁mufi	-6166
▁newa	-6167
▁nkwa	-6168
▁patu	-6169
▁udie	-6170
badila	-6171
batuma	-6172
bidila	-6173
enzeja	-6174
fuafua	-6175
gelona	-6176
ishabo	-6177
layeye	-6178
luhula	-6179
mbibua	-6180
nadaba	-6181
nvuile	-6182
ondoke	-6183
tekeye	-6184
tumeye	-6185
vudije	-6186
▁Abihu	-6187
▁Alama	-6188
▁Amina	-6189
▁Azaya	-6190
▁Beena	-6191
▁Bungi	-6192
▁Festo	-6193
▁Kuaku	-6194
▁Miaba	-6195
▁Nenye	-6196
▁Panua	-6197
▁Tuyai	-6198
▁anaka	-6199
▁bambe	-6200
▁bandu	-6201
▁biela	-6202
▁bikon	-6203
▁biobi	-6204
▁kudiu	-6205
▁kunde	-6206
▁luvua	-6207
▁mmalu	-6208
▁nenga	-6209
▁nkadi	-6210
▁nuele	-6211
▁uheta	-6212
▁umuka	-6213
▁umuke	-6214
▁usama	-6215
fukibua	-6216
kandike	-6217
lombole	-6218
londabo	-6219
mbakane	-6220
ntakaja	-6221
nyukule	-6222
peshaye	-6223
shikike	-6224
tudibue	-6225
▁Bialua	-6226
▁Dagona	-6227
▁Halana	-6228
▁Hanaka	-6229
▁Hêmona	-6230
▁Kuvudi	-6231
▁Muhika	-6232
▁Mutshi	-6233
▁Mâseya	-6234
▁Nakamu	-6235
▁Nakuku	-6236
▁Ninewe	-6237
▁Nâmana	-6238
▁Pelizi	-6239
▁Umanye	-6240
▁Umusha	-6241
▁Yudasa	-6242
▁ataanu	-6243
▁badibo	-6244
▁badibu	-6245
▁batumi	-6246
▁bibelu	-6247
▁biluwa	-6248
▁dibala	-6249
▁dikosa	-6250
▁dimvua	-6251
▁dinaka	-6252
▁ditanu	-6253
▁ditshi	-6254
▁hatoke	-6255
▁hikala	-6256
▁kalala	-6257
▁kudibu	-6258
▁kuhila	-6259
▁kulaba	-6260
▁lujima	-6261
▁mavule	-6262
▁mikono	-6263
▁misoku	-6264
▁mpenga	-6265
▁mufike	-6266
▁muishi	-6267
▁mutoto	-6268
▁mutuhu	-6269
▁nebele	-6270
▁nkayau	-6271
▁nsongu	-6272
▁numona	-6273
▁tshita	-6274
▁ufunde	-6275
▁ukuata	-6276
▁wakuku	-6277
▁wakunu	-6278
▁witaba	-6279
ditshiha	-6280
endakane	-6281
engelela	-6282
enzelabo	-6283
luhukabo	-6284
ngalasha	-6285
pitshila	-6286
salonike	-6287
shimbule	-6288
shindame	-6289
tondesha	-6290
▁Efelona	-6291
▁Kalongu	-6292
▁Masanka	-6293
▁Tshiona	-6294
▁akadiye	-6295
▁babenga	-6296
▁bakoshi	-6297
▁bakuata	-6298
▁bashihi	-6299
▁bijengu	-6300
▁bishima	-6301
▁dibuela	-6302
▁dileshi	-6303
▁dilongu	-6304
▁dishina	-6305
▁ditambe	-6306
▁hatuaka	-6307
▁kushika	-6308
▁kuyisha	-6309
▁mayisha	-6310
▁mbalasa	-6311
▁mikumbi	-6312
▁mpehele	-6313
▁muanebe	-6314
▁mudibio	-6315
▁muikulu	-6316
▁munuaka	-6317
▁ndisama	-6318
▁nealele	-6319
▁neamone	-6320
▁neateke	-6321
▁nebulue	-6322
▁nedilue	-6323
▁nkwaasa	-6324
▁ntshidi	-6325
▁tushola	-6326
banduluka	-6327
buikidile	-6328
handulula	-6329
kangatabo	-6330
kankamika	-6331
kuatshike	-6332
mmanyisha	-6333
shanganyi	-6334
tombokele	-6335
tshihisha	-6336
▁Baluishi	-6337
▁Buhianyi	-6338
▁Hakumuka	-6339
▁Heselona	-6340
▁Kaisalia	-6341
▁Kumonaye	-6342
▁Muomumue	-6343
▁Ntempelo	-6344
▁Nuangate	-6345
▁Tshituha	-6346
▁Tshitupa	-6347
▁akambila	-6348
▁babadike	-6349
▁babanshi	-6350
▁bahianyi	-6351
▁banganyi	-6352
▁banyenga	-6353
▁basalayi	-6354
▁buakalua	-6355
▁kampanda	-6356
▁manyooka	-6357
▁mitshihu	-6358
▁muntumpu	-6359
▁nebafile	-6360
▁nenuenze	-6361
▁tshibalu	-6362
▁tshipupu	-6363
▁wakavula	-6364
lambishila	-6365
lumbuluila	-6366
sangishabo	-6367
sungidibua	-6368
▁Bankambua	-6369
▁Panuikala	-6370
▁bakahidia	-6371
▁belangana	-6372
▁bendakana	-6373
▁bituadije	-6374
▁disungula	-6375
▁hakabuela	-6376
▁kabakenza	-6377
▁kabuikadi	-6378
▁kumiamina	-6379
▁lukungulu	-6380
▁matabisha	-6381
▁mbueshilu	-6382
▁mfumuanyi	-6383
▁nakangata	-6384
▁nuhingane	-6385
▁tshiakamu	-6386
▁tshibangu	-6387
▁tshisanji	-6388
▁ukudimuna	-6389
▁uluangana	-6390
▁usangisha	-6391
▁utumbisha	-6392
▁wakalomba	-6393
tendelelabo	-6394
▁Hakatshidi	-6395
▁Hanuabuela	-6396
▁Kuinyikaye	-6397
▁Mahanayima	-6398
▁Tesalonike	-6399
▁bangenzele	-6400
▁basangisha	-6401
▁batumbisha	-6402
▁batumikile	-6403
▁biakashala	-6404
▁bisambombu	-6405
▁diakambabo	-6406
▁disankisha	-6407
▁hakamoneye	-6408
▁hatshidiye	-6409
▁kunuenzela	-6410
▁kutumbisha	-6411
▁musombuedi	-6412
▁nebatshine	-6413
▁nuitabushe	-6414
▁nusakidile	-6415
▁wakahatula	-6416
▁wakalelela	-6417
▁ditampakane	-6418
▁kanutshinyi	-6419
▁nnumanyisha	-6420
▁atumbishibue	-6421
▁bahangidisha	-6422
▁bakashihibua	-6423
▁bunsongalume	-6424
▁kudihuekesha	-6425
▁kudisangisha	-6426
▁kumutumbisha	-6427
▁tshisokomenu	-6428
▁wakabandisha	-6429
▁wakashikisha	-6430
▁bakakuatshila	-6431
▁bakashikamamu	-6432
▁tshinakahunga	-6433
▁wakamukukuila	-6434
▁tshiakahungeye	-6435
KA	-6436
WA	-6437
pê	-6438
ale	-6439
gon	-6440
owi	-6441
êla	-6442
▁Ap	-6443
▁As	-6444
▁Of	-6445
▁Tî	-6446
▁WA	-6447
▁ci	-6448
▁da	-6449
▁eh	-6450
▁mâ	-6451
▁ny	-6452
▁so	-6453
babo	-6454
bake	-6455
bedi	-6456
bike	-6457
bola	-6458
deke	-6459
fulu	-6460
jana	-6461
jang	-6462
konk	-6463
lasa	-6464
ludi	-6465
mima	-6466
muki	-6467
pimu	-6468
pula	-6469
pule	-6470
seku	-6471
tena	-6472
tuta	-6473
usha	-6474
wule	-6475
zalo	-6476
ênza	-6477
împe	-6478
▁Aya	-6479
▁Dut	-6480
▁Ido	-6481
▁Ste	-6482
▁inu	-6483
bidie	-6484
haule	-6485
hendi	-6486
idike	-6487
ileye	-6488
kwata	-6489
latia	-6490
nyane	-6491
shake	-6492
twale	-6493
▁Aloê	-6494
▁Asia	-6495
▁Gaza	-6496
▁Gezê	-6497
▁Kaka	-6498
▁Kapê	-6499
▁Kule	-6500
▁Kuyi	-6501
▁Ludi	-6502
▁Mile	-6503
▁Ndon	-6504
▁Sibe	-6505
▁Sina	-6506
▁Yedu	-6507
▁Yehi	-6508
▁Yise	-6509
▁Yoya	-6510
▁afue	-6511
▁anua	-6512
▁biab	-6513
▁bupi	-6514
▁hamu	-6515
▁kame	-6516
▁luau	-6517
▁mala	-6518
▁mapu	-6519
▁minu	-6520
▁misa	-6521
▁mmei	-6522
▁muau	-6523
▁ungi	-6524
▁untu	-6525
▁uudi	-6526
▁wowo	-6527
ambaye	-6528
bakile	-6529
buluka	-6530
dualua	-6531
fuishe	-6532
fumeye	-6533
heliba	-6534
indila	-6535
kokela	-6536
lukile	-6537
luluke	-6538
nshila	-6539
nyangi	-6540
nyibua	-6541
rubine	-6542
salame	-6543
sokoko	-6544
temena	-6545
zabada	-6546
zakale	-6547
▁Dinda	-6548
▁Elone	-6549
▁Meshe	-6550
▁Nengi	-6551
▁Salai	-6552
▁Shala	-6553
▁Shelo	-6554
▁Tshio	-6555
▁Tuvua	-6556
▁Utule	-6557
▁Wanyi	-6558
▁Yetro	-6559
▁ahita	-6560
▁bambi	-6561
▁bihia	-6562
▁bulua	-6563
▁dilua	-6564
▁inaku	-6565
▁kambi	-6566
▁kembu	-6567
▁mbena	-6568
▁mmunu	-6569
▁nanyi	-6570
▁ndeke	-6571
▁ndila	-6572
▁ndina	-6573
▁neige	-6574
▁ngesu	-6575
▁njiwu	-6576
▁pavua	-6577
▁ubika	-6578
▁Ônana	-6579
angisha	-6580
buelele	-6581
eyemenu	-6582
funyina	-6583
hidiabo	-6584
jimishi	-6585
kidibua	-6586
kidisha	-6587
longama	-6588
manyina	-6589
mbileye	-6590
mushila	-6591
ngunuka	-6592
shihabo	-6593
sungulu	-6594
tshinke	-6595
tudibua	-6596
tumbile	-6597
unyenge	-6598
▁Hakaya	-6599
▁Kakuyi	-6600
▁Kuenza	-6601
▁Kuyabu	-6602
▁Lazalo	-6603
▁Lemeke	-6604
▁Limona	-6605
▁Mabaya	-6606
▁Makire	-6607
▁Meliba	-6608
▁Moleke	-6609
▁Mulami	-6610
▁Mweena	-6611
▁Nahore	-6612
▁Nebadi	-6613
▁Potifa	-6614
▁Seyire	-6615
▁Sukota	-6616
▁Temana	-6617
▁Wikale	-6618
▁ambule	-6619
▁avuaye	-6620
▁badiye	-6621
▁batudi	-6622
▁bilama	-6623
▁bitabe	-6624
▁bunaku	-6625
▁bunvue	-6626
▁dianza	-6627
▁diboku	-6628
▁difume	-6629
▁dihita	-6630
▁dimane	-6631
▁hayabo	-6632
▁kabafu	-6633
▁kakula	-6634
▁kanuhu	-6635
▁kuhona	-6636
▁kujila	-6637
▁kunuha	-6638
▁kuyabo	-6639
▁kuyidi	-6640
▁makuba	-6641
▁mamuen	-6642
▁manseb	-6643
▁mianze	-6644
▁mikolo	-6645
▁mmupie	-6646
▁mponda	-6647
▁mumvue	-6648
▁munula	-6649
▁musoku	-6650
▁mutoyi	-6651
▁nakaya	-6652
▁nangan	-6653
▁nkonge	-6654
▁nsanka	-6655
▁ntshia	-6656
▁tshite	-6657
▁tumama	-6658
▁tuonyi	-6659
▁ujinga	-6660
abanyina	-6661
andamune	-6662
bingisha	-6663
fundibua	-6664
handishe	-6665
humbisha	-6666
jidilabo	-6667
kunvuila	-6668
muenesha	-6669
mushibue	-6670
tahuluke	-6671
▁Bashane	-6672
▁Bilamba	-6673
▁Egelona	-6674
▁Galatia	-6675
▁Kabeena	-6676
▁Kadesha	-6677
▁Kedeshe	-6678
▁Mikaele	-6679
▁Obadaya	-6680
▁basungu	-6681
▁bayanyi	-6682
▁bilongu	-6683
▁dijimba	-6684
▁dijimbu	-6685
▁dikombo	-6686
▁kabeena	-6687
▁kubanga	-6688
▁kudisua	-6689
▁kuhiana	-6690
▁kuhunga	-6691
▁kuhuola	-6692
▁kukenga	-6693
▁kuluata	-6694
▁kusonga	-6695
▁kutshia	-6696
▁luikale	-6697
▁lunkelu	-6698
▁mabanza	-6699
▁minyane	-6700
▁mubenge	-6701
▁muhongo	-6702
▁musonga	-6703
▁musuika	-6704
▁ntshina	-6705
▁tatuebe	-6706
▁uluhuka	-6707
kenduluka	-6708
lenduishi	-6709
mbuluishe	-6710
mbulwisha	-6711
pingajile	-6712
pitshimpi	-6713
tangilabo	-6714
vungulula	-6715
▁Elishama	-6716
▁Eshebone	-6717
▁Kapênuma	-6718
▁Kuambaye	-6719
▁Kulelaye	-6720
▁Luhehele	-6721
▁Nakuenza	-6722
▁Netanele	-6723
▁Usungula	-6724
▁Wakateka	-6725
▁Yedutuna	-6726
▁Yelubâla	-6727
▁bahetula	-6728
▁busokoko	-6729
▁diakulua	-6730
▁hakahita	-6731
▁kuashila	-6732
▁kubuesha	-6733
▁kuenzabu	-6734
▁kufilabo	-6735
▁kunuisha	-6736
▁matekete	-6737
▁neabuele	-6738
▁nebunvue	-6739
▁nemmanye	-6740
▁nengambe	-6741
▁netuenze	-6742
▁nudimuke	-6743
▁nuenzela	-6744
▁tshianze	-6745
▁tshienza	-6746
▁tshimono	-6747
▁tshiyole	-6748
▁tshiônso	-6749
▁wakabela	-6750
▁wakakuma	-6751
▁wakamema	-6752
ambulwisha	-6753
tentekashe	-6754
tumbishabo	-6755
▁Abinadaba	-6756
▁Bakangata	-6757
▁Kubambila	-6758
▁Labashake	-6759
▁Muprofete	-6760
▁Nengikale	-6761
▁Tshikondu	-6762
▁Wakambila	-6763
▁amanyishe	-6764
▁bahuekele	-6765
▁bakenzela	-6766
▁bifukibua	-6767
▁dibuelela	-6768
▁kuhanduka	-6769
▁mfumuende	-6770
▁mumumanye	-6771
▁mutumibue	-6772
▁newangate	-6773
▁numushipe	-6774
▁nushikame	-6775
▁nutangile	-6776
▁tshitambe	-6777
▁wakamuene	-6778
▁wakashila	-6779
▁wakashiya	-6780
fuanyikishi	-6781
▁Bakerubine	-6782
▁Eleyashiba	-6783
▁Saneheliba	-6784
▁Yehoyakina	-6785
▁bandambula	-6786
▁hakamonabo	-6787
▁kuambilaye	-6788
▁kuangateye	-6789
▁makubakuba	-6790
▁nangananga	-6791
▁neakokeshe	-6792
▁nuelangana	-6793
▁nundambule	-6794
▁wakabiteka	-6795
▁wakabuesha	-6796
▁akamuambila	-6797
▁bakakolesha	-6798
▁balongolola	-6799
▁disengelela	-6800
▁kukuatshika	-6801
▁kushikamamu	-6802
▁kushikameye	-6803
▁makanangane	-6804
▁neadioweshe	-6805
▁nusengelela	-6806
▁nutendelela	-6807
▁wakamukuata	-6808
▁wakasungila	-6809
▁badisangishe	-6810
▁bakakudimuna	-6811
▁bakashimbula	-6812
▁bandumbulula	-6813
▁bantombokedi	-6814
▁kubakengesha	-6815
▁kudilengesha	-6816
▁kutandangana	-6817
▁nsungansunga	-6818
▁wakadishinda	-6819
▁wakamutumina	-6820
▁mushihianganyi	-6821
▁tshimpitshimpi	-6822
▁wakanyunguluka	-6823
▁wakatshinguluka	-6824
NG	-6825
am	-6826
fê	-6827
hô	-6828
ès	-6829
bwe	-6830
mme	-6831
nea	-6832
ony	-6833
sai	-6834
vin	-6835
▁Bo	-6836
▁El	-6837
▁Hô	-6838
▁Mw	-6839
▁Or	-6840
▁Tô	-6841
▁yê	-6842
bîdi	-6843
dabu	-6844
huma	-6845
jilu	-6846
kebi	-6847
kolo	-6848
lede	-6849
lehe	-6850
luhu	-6851
male	-6852
meya	-6853
nima	-6854
rizi	-6855
sana	-6856
shia	-6857
sope	-6858
tame	-6859
tayi	-6860
teme	-6861
teyi	-6862
toko	-6863
▁Abe	-6864
▁Are	-6865
▁Ase	-6866
▁Awu	-6867
▁Ebê	-6868
▁Hau	-6869
▁Nge	-6870
▁Nvi	-6871
▁Oge	-6872
▁Ore	-6873
▁bai	-6874
▁baw	-6875
▁kat	-6876
▁lon	-6877
▁mmi	-6878
▁nda	-6879
▁uhe	-6880
abele	-6881
banya	-6882
eyelu	-6883
lambe	-6884
liele	-6885
mande	-6886
masha	-6887
miele	-6888
nyina	-6889
pingu	-6890
ragon	-6891
rovin	-6892
shure	-6893
sompo	-6894
suile	-6895
tuile	-6896
vunde	-6897
▁Basa	-6898
▁Betu	-6899
▁Gela	-6900
▁Hadi	-6901
▁Hama	-6902
▁Hasô	-6903
▁Maka	-6904
▁Mefi	-6905
▁Mele	-6906
▁Mesa	-6907
▁Nune	-6908
▁Siba	-6909
▁Tela	-6910
▁Tîsa	-6911
▁Wadi	-6912
▁Yoke	-6913
▁Zêba	-6914
▁buan	-6915
▁bunu	-6916
▁diye	-6917
▁habu	-6918
▁kadî	-6919
▁kuai	-6920
▁line	-6921
▁lulu	-6922
▁lutu	-6923
▁mabu	-6924
▁muen	-6925
▁muko	-6926
▁muyi	-6927
▁neau	-6928
▁tuya	-6929
▁wele	-6930
▁yuda	-6931
anyina	-6932
badike	-6933
dalaka	-6934
denego	-6935
enalio	-6936
enzeji	-6937
fataya	-6938
honena	-6939
jadiki	-6940
manabo	-6941
manymu	-6942
mpidia	-6943
mukeye	-6944
tayima	-6945
tshihe	-6946
vuishi	-6947
yuisha	-6948
▁Abele	-6949
▁Agipa	-6950
▁Biamu	-6951
▁Bimpe	-6952
▁Geshû	-6953
▁Itama	-6954
▁Kahia	-6955
▁Mashi	-6956
▁Ndiku	-6957
▁Nendu	-6958
▁Nuvua	-6959
▁Pashû	-6960
▁Solea	-6961
▁Wakan	-6962
▁bafua	-6963
▁buela	-6964
▁diabi	-6965
▁enzai	-6966
▁grame	-6967
▁inaka	-6968
▁lonji	-6969
▁mbote	-6970
▁mpetu	-6971
▁muase	-6972
▁nenyi	-6973
▁uleja	-6974
▁uteka	-6975
▁wambe	-6976
angibue	-6977
anyishe	-6978
bangile	-6979
bosheta	-6980
dombele	-6981
fidibue	-6982
jikibua	-6983
kenketa	-6984
kenkete	-6985
mbilabo	-6986
sangale	-6987
shilula	-6988
sombele	-6989
yangane	-6990
▁Bakela	-6991
▁Biasua	-6992
▁Budimi	-6993
▁Hakaba	-6994
▁Hanuna	-6995
▁Hulama	-6996
▁Kuteka	-6997
▁Lahaba	-6998
▁Mikala	-6999
▁Misoko	-7000
▁Nadabe	-7001
▁Nakunu	-7002
▁Pelete	-7003
▁Selaya	-7004
▁Sisela	-7005
▁Yedaya	-7006
▁Yefete	-7007
▁Yisehâ	-7008
▁abuele	-7009
▁aleeja	-7010
▁amande	-7011
▁babala	-7012
▁bafuma	-7013
▁bakuku	-7014
▁bialua	-7015
▁biamba	-7016
▁bihesa	-7017
▁bilaba	-7018
▁buhite	-7019
▁bulobo	-7020
▁hayeye	-7021
▁kabadi	-7022
▁kakayi	-7023
▁kakena	-7024
▁kaneke	-7025
▁kanulu	-7026
▁kuambi	-7027
▁kubela	-7028
▁kubila	-7029
▁kukuha	-7030
▁kumuha	-7031
▁kusang	-7032
▁kutoke	-7033
▁kuyila	-7034
▁lubuku	-7035
▁lutatu	-7036
▁mbombo	-7037
▁mikolu	-7038
▁milayi	-7039
▁mmumue	-7040
▁mudibi	-7041
▁mukata	-7042
▁mukete	-7043
▁muloho	-7044
▁mumvua	-7045
▁munvue	-7046
▁musele	-7047
▁neadie	-7048
▁nebatu	-7049
▁nuende	-7050
▁nutshi	-7051
▁tshima	-7052
▁tshinu	-7053
▁tshipa	-7054
▁tubadi	-7055
▁tuseku	-7056
▁ufuila	-7057
▁unuaka	-7058
▁unyema	-7059
abuikila	-7060
anduluka	-7061
hinganyi	-7062
jidileye	-7063
kalekela	-7064
kosolola	-7065
kudimuke	-7066
longeshe	-7067
mbakanyi	-7068
mueneshe	-7069
ngenzela	-7070
sumbisha	-7071
▁Bisumbu	-7072
▁Bushuwa	-7073
▁Meshaka	-7074
▁Udimuke	-7075
▁akadibo	-7076
▁akamata	-7077
▁bakahia	-7078
▁bakanua	-7079
▁benzela	-7080
▁bielelu	-7081
▁bilengu	-7082
▁bukwabo	-7083
▁bumuntu	-7084
▁buvuaye	-7085
▁diakaba	-7086
▁dihanga	-7087
▁kabiaka	-7088
▁kamuena	-7089
▁kashipi	-7090
▁kuhueka	-7091
▁kulambu	-7092
▁kulenga	-7093
▁kumanyi	-7094
▁lupingu	-7095
▁majimbu	-7096
▁matambe	-7097
▁mbabula	-7098
▁mishiki	-7099
▁mmumane	-7100
▁muakamu	-7101
▁muatshi	-7102
▁mukunda	-7103
▁mukunze	-7104
▁mupeshe	-7105
▁mutuadi	-7106
▁muvuabu	-7107
▁nakalua	-7108
▁neamuhe	-7109
▁nnganyi	-7110
▁nuikala	-7111
▁tunungu	-7112
▁unemeka	-7113
▁yakalua	-7114
hambuisha	-7115
kandamuka	-7116
kenzakana	-7117
muenekela	-7118
ngishibue	-7119
sunguluja	-7120
tatshishi	-7121
tshintshi	-7122
▁Bakateka	-7123
▁Basadoke	-7124
▁Diakamue	-7125
▁Magadala	-7126
▁Potifare	-7127
▁Salemuna	-7128
▁Zebulone	-7129
▁akenzela	-7130
▁bajadike	-7131
▁bakatshi	-7132
▁bakumana	-7133
▁banemeka	-7134
▁biakalua	-7135
▁bikalaku	-7136
▁bikowelu	-7137
▁binuenza	-7138
▁buakamba	-7139
▁diakamue	-7140
▁dipatuka	-7141
▁disalame	-7142
▁disalayi	-7143
▁hakayeye	-7144
▁kulamata	-7145
▁kuluhuka	-7146
▁kuzakala	-7147
▁majalame	-7148
▁muangate	-7149
▁mukajebe	-7150
▁munyengi	-7151
▁ndekeelu	-7152
▁ndenalio	-7153
▁nebâteke	-7154
▁ngenzelu	-7155
▁nuakalua	-7156
▁nulekele	-7157
▁nutshidi	-7158
▁tshidibu	-7159
▁tshihesa	-7160
▁tshikala	-7161
▁tshikama	-7162
▁ulombola	-7163
▁wakakosa	-7164
▁wakumona	-7165
▁wakunyua	-7166
▁wenzesha	-7167
▁weyemena	-7168
hingashile	-7169
hongoluela	-7170
kangambila	-7171
manyangana	-7172
tengudibua	-7173
▁Abedenego	-7174
▁Bakokeshi	-7175
▁Bituikala	-7176
▁Eleyakima	-7177
▁Hakalueye	-7178
▁Nenvuishe	-7179
▁Shadalaka	-7180
▁Shefataya	-7181
▁Tshibanda	-7182
▁Wakangata	-7183
▁bakahueka	-7184
▁bakamuela	-7185
▁bakengela	-7186
▁bamumanye	-7187
▁bashihela	-7188
▁bulongama	-7189
▁ditangila	-7190
▁kuakadibo	-7191
▁kueyemena	-7192
▁kulondabo	-7193
▁kushihela	-7194
▁mikungulu	-7195
▁mukumbane	-7196
▁mungalata	-7197
▁musangelu	-7198
▁nebumushe	-7199
▁panuikala	-7200
▁tshiotshi	-7201
▁tshipwita	-7202
▁tshiuwidi	-7203
▁ukengesha	-7204
▁umanyisha	-7205
▁wakabenga	-7206
▁wakafuila	-7207
▁wakahanda	-7208
▁wakananga	-7209
kengeshibue	-7210
sangakeneye	-7211
sankishibue	-7212
tshunguluka	-7213
▁Hakunvueye	-7214
▁Kuambilaye	-7215
▁Nsongakaji	-7216
▁bakahatuka	-7217
▁bakamukuma	-7218
▁bamuangala	-7219
▁bunakalaya	-7220
▁kuhingisha	-7221
▁kunyanguka	-7222
▁mubapatule	-7223
▁mungambile	-7224
▁neahingane	-7225
▁nuitabusha	-7226
▁tshidikoka	-7227
▁tshimanymu	-7228
▁wakabelela	-7229
▁wakayiteka	-7230
kanyunguluka	-7231
▁Bakamukonka	-7232
▁Mefibosheta	-7233
▁avudishibue	-7234
▁bakabalonda	-7235
▁bakamukuata	-7236
▁bakashihabo	-7237
▁bidiatshilu	-7238
▁dilongolola	-7239
▁kumuakidila	-7240
▁kuvulangana	-7241
▁mihanduluke	-7242
▁mulumbuludi	-7243
▁nenkuvuishe	-7244
▁tshieyemenu	-7245
▁tuasakidila	-7246
▁wakabandila	-7247
▁wakabayisha	-7248
▁wakadihanda	-7249
▁wakahanduka	-7250
▁wakamubisha	-7251
▁wakasangila	-7252
▁wakendakana	-7253
▁bakadianjila	-7254
▁batengudibue	-7255
▁bilengulengu	-7256
▁bishilangane	-7257
▁bitandatanda	-7258
▁muakenzeleye	-7259
▁tshishihuidi	-7260
▁tshitelatela	-7261
▁ulumbuluisha	-7262
▁wakahingisha	-7263
▁binuatumikila	-7264
▁tshilenduishi	-7265
▁wakabanduluka	-7266
▁wakamutangila	-7267
▁bakamuitabusha	-7268
▁bakamukudimuna	-7269
▁bakanyunguluka	-7270
▁kabakatumikila	-7271
▁kansungansunga	-7272
▁kubakuatshisha	-7273
LU	-7274
bî	-7275
it	-7276
lê	-7277
nâ	-7278
ry	-7279
yr	-7280
▁f	-7281
ANG	-7282
ILA	-7283
amù	-7284
apu	-7285
ase	-7286
hir	-7287
iha	-7288
rès	-7289
▁Af	-7290
▁NE	-7291
▁ns	-7292
beji	-7293
daka	-7294
dola	-7295
hale	-7296
hule	-7297
iele	-7298
keli	-7299
koma	-7300
kudi	-7301
kuha	-7302
lema	-7303
mbwa	-7304
naya	-7305
neye	-7306
pane	-7307
phir	-7308
polu	-7309
riko	-7310
sasu	-7311
seye	-7312
sona	-7313
sopa	-7314
undu	-7315
weta	-7316
▁Biu	-7317
▁Eva	-7318
▁Kin	-7319
▁Mui	-7320
▁Ori	-7321
▁Sef	-7322
▁Ubi	-7323
▁Ure	-7324
▁asa	-7325
▁dip	-7326
▁mbo	-7327
▁min	-7328
▁mum	-7329
▁myr	-7330
▁njû	-7331
bange	-7332
donde	-7333
elabo	-7334
gashi	-7335
honyi	-7336
jiana	-7337
kanua	-7338
kesha	-7339
kongo	-7340
kongu	-7341
mashe	-7342
shiyi	-7343
sonsa	-7344
tania	-7345
tengu	-7346
twadi	-7347
vului	-7348
wuaye	-7349
▁Anji	-7350
▁Asha	-7351
▁Bani	-7352
▁Beta	-7353
▁Bilo	-7354
▁Debî	-7355
▁Disu	-7356
▁Haki	-7357
▁Hete	-7358
▁Kefa	-7359
▁Kula	-7360
▁Kunu	-7361
▁Male	-7362
▁Milo	-7363
▁Muba	-7364
▁Naha	-7365
▁Neti	-7366
▁Nubi	-7367
▁Wele	-7368
▁Yabo	-7369
▁Yaka	-7370
▁adie	-7371
▁bele	-7372
▁bihu	-7373
▁bila	-7374
▁bulo	-7375
▁dipi	-7376
▁dite	-7377
▁kabo	-7378
▁kafu	-7379
▁kube	-7380
▁lubi	-7381
▁mapi	-7382
▁maso	-7383
▁ming	-7384
▁mito	-7385
▁muai	-7386
▁muwa	-7387
▁nubu	-7388
▁pabu	-7389
▁upia	-7390
▁wamu	-7391
▁wang	-7392
▁wasa	-7393
▁yoyo	-7394
▁yêye	-7395
▁ônso	-7396
abanya	-7397
anyine	-7398
bidile	-7399
ebeshe	-7400
enzabo	-7401
fehada	-7402
fidila	-7403
fikabo	-7404
kelaga	-7405
kenabo	-7406
kulame	-7407
lamike	-7408
mbishe	-7409
menabo	-7410
mikile	-7411
nuisha	-7412
nyange	-7413
nyisha	-7414
okesha	-7415
tshiki	-7416
tuisha	-7417
vidila	-7418
▁Agaga	-7419
▁Akaya	-7420
▁Amola	-7421
▁Arane	-7422
▁Balue	-7423
▁Bianu	-7424
▁Bivua	-7425
▁Bumue	-7426
▁Hagai	-7427
▁Kalea	-7428
▁Kanua	-7429
▁Maalu	-7430
▁Muadi	-7431
▁Neanu	-7432
▁Nenun	-7433
▁Nuaka	-7434
▁Nvita	-7435
▁Oleve	-7436
▁adiku	-7437
▁atudi	-7438
▁biabi	-7439
▁biawu	-7440
▁bimba	-7441
▁buala	-7442
▁bukua	-7443
▁dinai	-7444
▁ikala	-7445
▁kosha	-7446
▁kuabi	-7447
▁kungi	-7448
▁kunvu	-7449
▁luehu	-7450
▁mifue	-7451
▁mpasu	-7452
▁muiku	-7453
▁mwaba	-7454
▁neayi	-7455
▁nenze	-7456
▁nkasa	-7457
▁penyi	-7458
▁ukina	-7459
▁yenda	-7460
abikile	-7461
abueshe	-7462
anemeke	-7463
badibua	-7464
bandabo	-7465
hendabo	-7466
kisheye	-7467
kukuile	-7468
lenduke	-7469
lombeye	-7470
mushabo	-7471
pangane	-7472
rovince	-7473
shasete	-7474
shimike	-7475
sumbile	-7476
teshasâ	-7477
undishe	-7478
yengeye	-7479
▁Amrame	-7480
▁Bahika	-7481
▁Bubidi	-7482
▁Datane	-7483
▁Dedana	-7484
▁Dikasa	-7485
▁Ebrone	-7486
▁Hadada	-7487
▁Kalebe	-7488
▁Kelete	-7489
▁Lehoba	-7490
▁Luseke	-7491
▁Mbualu	-7492
▁Mubidi	-7493
▁Nakaba	-7494
▁Peyore	-7495
▁Semena	-7496
▁Tshibu	-7497
▁Tubadi	-7498
▁Umukai	-7499
▁Yeriko	-7500
▁Yeusha	-7501
▁Zikeli	-7502
▁alonda	-7503
▁anuaka	-7504
▁ashala	-7505
▁avuabu	-7506
▁badimu	-7507
▁balale	-7508
▁banowi	-7509
▁banunu	-7510
▁bawaka	-7511
▁bawaku	-7512
▁biakun	-7513
▁bibilu	-7514
▁bihedi	-7515
▁bimvua	-7516
▁binaka	-7517
▁binaku	-7518
▁bituhu	-7519
▁bukola	-7520
▁bukubi	-7521
▁bumvue	-7522
▁diakan	-7523
▁dikopu	-7524
▁dimana	-7525
▁diteta	-7526
▁dragon	-7527
▁holona	-7528
▁kakaba	-7529
▁kakaya	-7530
▁kanufu	-7531
▁kayaka	-7532
▁kuimpe	-7533
▁kumana	-7534
▁kunaya	-7535
▁kutela	-7536
▁kuteta	-7537
▁luamba	-7538
▁mafuma	-7539
▁makaya	-7540
▁mbanga	-7541
▁mbanyi	-7542
▁mihite	-7543
▁mikila	-7544
▁mikonu	-7545
▁mufitu	-7546
▁mufuke	-7547
▁mulema	-7548
▁musaka	-7549
▁nakuba	-7550
▁nakumu	-7551
▁neudie	-7552
▁ngandi	-7553
▁ntamba	-7554
▁nyinyo	-7555
▁saphir	-7556
▁ukenka	-7557
▁utuala	-7558
▁wakahu	-7559
▁wakuba	-7560
▁wimana	-7561
▁yakamu	-7562
angatabo	-7563
bandishe	-7564
imanyika	-7565
kulakula	-7566
lekelele	-7567
mbambila	-7568
ntakasha	-7569
sesuisha	-7570
tekemene	-7571
tokoloke	-7572
tshiheye	-7573
yanganyi	-7574
▁Abidona	-7575
▁Abirame	-7576
▁Betania	-7577
▁Efelata	-7578
▁Filipoi	-7579
▁Hatuaka	-7580
▁Itamare	-7581
▁Katshia	-7582
▁Kuikadi	-7583
▁Kuikala	-7584
▁Kushala	-7585
▁Mueyelu	-7586
▁Nakulua	-7587
▁Nenfile	-7588
▁Nenteke	-7589
▁Nentume	-7590
▁Ngomore	-7591
▁Yehiele	-7592
▁akadiku	-7593
▁bahanyi	-7594
▁bashiha	-7595
▁bisonsa	-7596
▁buakamu	-7597
▁bukoshi	-7598
▁dibanda	-7599
▁diolola	-7600
▁dishale	-7601
▁diteeka	-7602
▁kakadia	-7603
▁kakalua	-7604
▁kakanza	-7605
▁kakenza	-7606
▁kubidia	-7607
▁kubisha	-7608
▁kuebeja	-7609
▁kuelamu	-7610
▁kuelela	-7611
▁kufuaye	-7612
▁kuhanga	-7613
▁kuhidia	-7614
▁kuhisha	-7615
▁kujinga	-7616
▁kuvuala	-7617
▁kuyenza	-7618
▁lukuabu	-7619
▁majambu	-7620
▁majinga	-7621
▁makwabo	-7622
▁malomba	-7623
▁mamanya	-7624
▁mavuala	-7625
▁milondo	-7626
▁mitambe	-7627
▁mpokolo	-7628
▁mubangu	-7629
▁muntume	-7630
▁munuvua	-7631
▁musunyi	-7632
▁nakenza	-7633
▁neahete	-7634
▁neahone	-7635
▁nuwuaye	-7636
▁tshiibi	-7637
▁tshipia	-7638
▁tshisui	-7639
▁tshitua	-7640
▁tutamba	-7641
▁uhatuka	-7642
▁uhetula	-7643
▁ulekela	-7644
▁uvuluka	-7645
handuluka	-7646
hinganeye	-7647
jimishile	-7648
kangateye	-7649
kilangana	-7650
lumbulule	-7651
monangana	-7652
muenekele	-7653
pingajila	-7654
sungulabo	-7655
▁Bikalabo	-7656
▁Ditshina	-7657
▁Matanaya	-7658
▁Mushindu	-7659
▁Nakamona	-7660
▁Nengenze	-7661
▁Netinima	-7662
▁Ngoshene	-7663
▁Nunemeke	-7664
▁Sikelaga	-7665
▁Wakafika	-7666
▁ahingane	-7667
▁akambeye	-7668
▁akumbana	-7669
▁alambule	-7670
▁apingane	-7671
▁bakahona	-7672
▁bakatula	-7673
▁bakayila	-7674
▁bapatuke	-7675
▁bidiunda	-7676
▁bienzeye	-7677
▁biombelu	-7678
▁buakenza	-7679
▁buakulua	-7680
▁bupianyi	-7681
▁dibatiza	-7682
▁dihatuka	-7683
▁dilualua	-7684
▁dinkenke	-7685
▁kadieena	-7686
▁kudiunda	-7687
▁kuenzeka	-7688
▁kuenzeye	-7689
▁kufuisha	-7690
▁kumonaye	-7691
▁kundonda	-7692
▁kupatula	-7693
▁kusokoma	-7694
▁kutuluka	-7695
▁kuyukila	-7696
▁munulaye	-7697
▁mupatule	-7698
▁nebamone	-7699
▁nenumone	-7700
▁neumushe	-7701
▁nuvuluke	-7702
▁tshidiku	-7703
▁tshimana	-7704
▁tuakulua	-7705
▁ubuelela	-7706
▁usangana	-7707
▁ushikame	-7708
▁usungula	-7709
▁usungule	-7710
▁utangile	-7711
▁wakihata	-7712
▁wakubika	-7713
▁yakadibo	-7714
banyangana	-7715
buikidibue	-7716
jimishibua	-7717
longoluele	-7718
lumbuluile	-7719
tangalasha	-7720
tentekasha	-7721
▁Aminadaba	-7722
▁bibambalu	-7723
▁bikengela	-7724
▁bimueneka	-7725
▁buakadiye	-7726
▁budisuile	-7727
▁diakufika	-7728
▁dineemeka	-7729
▁hakambeye	-7730
▁hantshidi	-7731
▁hanuakadi	-7732
▁katangila	-7733
▁kuledibua	-7734
▁kumupesha	-7735
▁kumushipa	-7736
▁neasukule	-7737
▁nebabuele	-7738
▁neikaleku	-7739
▁nempatule	-7740
▁nsakidila	-7741
▁teletwale	-7742
▁tshiakaba	-7743
▁tshibûngi	-7744
▁tshifundu	-7745
▁tshilembi	-7746
▁tshimunyi	-7747
▁tshipaapu	-7748
▁tshishima	-7749
▁tshivuadi	-7750
▁tutangila	-7751
▁unuambila	-7752
▁usankisha	-7753
▁wakaluata	-7754
▁wakasanka	-7755
▁wakaubala	-7756
mueneshibua	-7757
▁Atashasete	-7758
▁Nengambile	-7759
▁Selofehada	-7760
▁Tshitekelu	-7761
▁badianjile	-7762
▁bakalamata	-7763
▁bakatshidi	-7764
▁bumanyishi	-7765
▁hakatshidi	-7766
▁kuidikisha	-7767
▁kuimanyika	-7768
▁kumuinyika	-7769
▁kusombuela	-7770
▁kutshimuna	-7771
▁muakenzabo	-7772
▁neamushihe	-7773
▁nenkuleshe	-7774
▁nenuangate	-7775
▁tshikaminu	-7776
▁ungunvuile	-7777
▁wakabateka	-7778
▁wakabifila	-7779
▁wakanyinga	-7780
hingishilula	-7781
▁Batentekedi	-7782
▁Beleteshasâ	-7783
▁Bulongolodi	-7784
▁Dilongolola	-7785
▁Kubambilaye	-7786
▁bajingulula	-7787
▁bakabakonka	-7788
▁bashikamemu	-7789
▁batendeledi	-7790
▁buakabalabo	-7791
▁dilongolodi	-7792
▁ditendelela	-7793
▁kusengelela	-7794
▁neakudimune	-7795
▁nenushikame	-7796
▁nsongakashi	-7797
▁nukuatshile	-7798
▁tshiakadiye	-7799
▁ukuatshisha	-7800
▁wakabalesha	-7801
▁wakamuitaba	-7802
▁wakamusuika	-7803
tshintshimike	-7804
▁bakabandisha	-7805
▁balondangane	-7806
▁biangatshile	-7807
▁bubuikidibue	-7808
▁kuditumbisha	-7809
▁kunumanyisha	-7810
▁ntshimanyinu	-7811
▁tshituangane	-7812
▁tshivulukilu	-7813
▁wakamuladika	-7814
▁wakasankisha	-7815
▁wakatulukila	-7816
▁kabakasangana	-7817
▁kunubuikidila	-7818
▁wakamushikika	-7819
▁Masungulangana	-7820
▁muakabambileye	-7821
▁mutangilangane	-7822
▁wakalambishila	-7823
DA	-7824
co	-7825
ie	-7826
kê	-7827
uf	-7828
yp	-7829
yì	-7830
ENA	-7831
abô	-7832
ala	-7833
fik	-7834
hry	-7835
koa	-7836
uja	-7837
wai	-7838
êle	-7839
▁BA	-7840
▁Dô	-7841
▁Hû	-7842
▁ge	-7843
▁le	-7844
▁mê	-7845
▁nn	-7846
▁tû	-7847
▁um	-7848
adia	-7849
bina	-7850
dela	-7851
fano	-7852
fima	-7853
gela	-7854
gido	-7855
kaje	-7856
kaji	-7857
kata	-7858
keha	-7859
kuka	-7860
kutu	-7861
lene	-7862
lita	-7863
luba	-7864
mayi	-7865
ngun	-7866
onyx	-7867
rode	-7868
roit	-7869
shîe	-7870
soli	-7871
tapu	-7872
teya	-7873
tiya	-7874
tofa	-7875
tuba	-7876
ufre	-7877
umue	-7878
wana	-7879
yafa	-7880
zaku	-7881
zere	-7882
▁Bin	-7883
▁Bwa	-7884
▁Bya	-7885
▁DIA	-7886
▁Ede	-7887
▁Imê	-7888
▁Nda	-7889
▁Ngu	-7890
▁Sua	-7891
▁Taa	-7892
▁Yoa	-7893
▁baa	-7894
▁cyp	-7895
▁ela	-7896
▁ele	-7897
▁eyo	-7898
▁imu	-7899
▁mal	-7900
▁mie	-7901
▁nko	-7902
▁nze	-7903
▁wam	-7904
abika	-7905
ambre	-7906
diata	-7907
domba	-7908
dongo	-7909
eyeke	-7910
fuadi	-7911
fuidi	-7912
haudi	-7913
hendu	-7914
huole	-7915
ihata	-7916
ihate	-7917
ipate	-7918
konya	-7919
▁	-7920
a	-7921
u	-7922
i	-7923
e	-7924
n	-7925
b	-7926
m	-7927
k	-7928
l	-7929
d	-7930
s	-7931
t	-7932
h	-7933
o	-7934
,	-7935
y	-7936
w	-7937
g	-7938
B	-7939
p	-7940
M	-7941
z	-7942
Y	-7943
N	-7944
j	-7945
;	-7946
f	-7947
v	-7948
K	-7949
A	-7950
r	-7951
I	-7952
H	-7953
E	-7954
S	-7955
D	-7956
T	-7957
:	-7958
î	-7959
U	-7960
P	-7961
L	-7962
â	-7963
W	-7964
ô	-7965
û	-7966
G	-7967
ê	-7968
c	-7969
é	-7970
Z	-7971
O	-7972
R	-7973
F	-7974
à	-7975
Â	-7976
è	-7977
J	-7978
C	-7979
ì	-7980
q	-7981
V	-7982
ù	-7983
Ô	-7984
x	-7985
ï	-7986
Û	-7987
ě	-7988
É	-7989
Î	-7990
Ï	-7991
Ö	-7992
ä	-7993
ç	-7994
í	-7995
ń	-7996
